{
  "version": "1.0",
  "truncation": {
    "direction": "Right",
    "max_length": 128,
    "strategy": "LongestFirst",
    "stride": 0
  },
  "padding": {
    "strategy": {
      "Fixed": 128
    },
    "direction": "Right",
    "pad_to_multiple_of": null,
    "pad_id": 0,
    "pad_type_id": 0,
    "pad_token": "<pad>"
  },
  "added_tokens": [
    {
      "id": 0,
      "content": "<pad>",
      "single_word": false,
      "lstrip": false,
      "rstrip": false,
      "normalized": false,
      "special": true
    },
    {
      "id": 1,
      "content": "<unk>",
      "single_word": false,
      "lstrip": false,
      "rstrip": false,
      "normalized": false,
      "special": true
    },
    {
      "id": 2,
      "content": "<bos>",
      "single_word": false,
      "lstrip": false,
      "rstrip": false,
      "normalized": false,
      "special": true
    },
    {
      "id": 3,
      "content": "<eos>",
      "single_word": false,
      "lstrip": false,
      "rstrip": false,
      "normalized": false,
      "special": true
    }
  ],
  "normalizer": null,
  "pre_tokenizer": {
    "type": "Whitespace"
  },
  "post_processor": {
    "type": "TemplateProcessing",
    "single": [
      {
        "SpecialToken": {
          "id": "<bos>",
          "type_id": 0
        }
      },
      {
        "Sequence": {
          "id": "A",
          "type_id": 0
        }
      },
      {
        "SpecialToken": {
          "id": "<eos>",
          "type_id": 0
        }
      }
    ],
    "pair": [
      {
        "Sequence": {
          "id": "A",
          "type_id": 0
        }
      },
      {
        "Sequence": {
          "id": "B",
          "type_id": 1
        }
      }
    ],
    "special_tokens": {
      "<bos>": {
        "id": "<bos>",
        "ids": [
          2
        ],
        "tokens": [
          "<bos>"
        ]
      },
      "<eos>": {
        "id": "<eos>",
        "ids": [
          3
        ],
        "tokens": [
          "<eos>"
        ]
      }
    }
  },
  "decoder": null,
  "model": {
    "type": "BPE",
    "dropout": null,
    "unk_token": "<unk>",
    "continuing_subword_prefix": null,
    "end_of_word_suffix": null,
    "fuse_unk": false,
    "byte_fallback": false,
    "ignore_merges": false,
    "vocab": {
      "<pad>": 0,
      "<unk>": 1,
      "<bos>": 2,
      "<eos>": 3,
      "\u0001": 4,
      "\u0002": 5,
      "\u0003": 6,
      "\u0004": 7,
      "\u0005": 8,
      "\u0006": 9,
      "\u0007": 10,
      "\b": 11,
      "\u000e": 12,
      "\u000f": 13,
      "\u0010": 14,
      "\u0011": 15,
      "\u0012": 16,
      "\u0013": 17,
      "\u0014": 18,
      "\u0015": 19,
      "\u0016": 20,
      "\u0017": 21,
      "\u0018": 22,
      "\u0019": 23,
      "\u001a": 24,
      "\u001b": 25,
      "!": 26,
      "\"": 27,
      "#": 28,
      "$": 29,
      "%": 30,
      "&": 31,
      "'": 32,
      "(": 33,
      ")": 34,
      "*": 35,
      "+": 36,
      ",": 37,
      "-": 38,
      ".": 39,
      "/": 40,
      "0": 41,
      "1": 42,
      "2": 43,
      "3": 44,
      "4": 45,
      "5": 46,
      "6": 47,
      "7": 48,
      "8": 49,
      "9": 50,
      ":": 51,
      ";": 52,
      "<": 53,
      "=": 54,
      ">": 55,
      "?": 56,
      "@": 57,
      "[": 58,
      "\\": 59,
      "]": 60,
      "^": 61,
      "_": 62,
      "`": 63,
      "a": 64,
      "b": 65,
      "c": 66,
      "d": 67,
      "e": 68,
      "f": 69,
      "g": 70,
      "h": 71,
      "i": 72,
      "j": 73,
      "k": 74,
      "l": 75,
      "m": 76,
      "n": 77,
      "o": 78,
      "p": 79,
      "q": 80,
      "r": 81,
      "s": 82,
      "t": 83,
      "u": 84,
      "v": 85,
      "w": 86,
      "x": 87,
      "y": 88,
      "z": 89,
      "{": 90,
      "|": 91,
      "}": 92,
      "~": 93,
      "": 94,
      "": 95,
      "": 96,
      "": 97,
      "": 98,
      "": 99,
      "": 100,
      "": 101,
      "": 102,
      "": 103,
      "": 104,
      "": 105,
      "": 106,
      "": 107,
      "": 108,
      "": 109,
      "": 110,
      "": 111,
      "": 112,
      "": 113,
      "": 114,
      "": 115,
      "": 116,
      "": 117,
      "": 118,
      "": 119,
      "": 120,
      "": 121,
      "": 122,
      "": 123,
      "": 124,
      "": 125,
      "¡": 126,
      "¢": 127,
      "£": 128,
      "¤": 129,
      "¥": 130,
      "¦": 131,
      "§": 132,
      "¨": 133,
      "©": 134,
      "ª": 135,
      "«": 136,
      "¬": 137,
      "­": 138,
      "®": 139,
      "¯": 140,
      "°": 141,
      "±": 142,
      "²": 143,
      "³": 144,
      "´": 145,
      "µ": 146,
      "¶": 147,
      "·": 148,
      "¸": 149,
      "¹": 150,
      "º": 151,
      "»": 152,
      "¼": 153,
      "½": 154,
      "¾": 155,
      "¿": 156,
      "×": 157,
      "ß": 158,
      "à": 159,
      "á": 160,
      "â": 161,
      "ã": 162,
      "ä": 163,
      "å": 164,
      "æ": 165,
      "ç": 166,
      "è": 167,
      "é": 168,
      "ê": 169,
      "ë": 170,
      "ì": 171,
      "í": 172,
      "î": 173,
      "ï": 174,
      "ð": 175,
      "ñ": 176,
      "ò": 177,
      "ó": 178,
      "ô": 179,
      "õ": 180,
      "ö": 181,
      "÷": 182,
      "ø": 183,
      "ù": 184,
      "ú": 185,
      "û": 186,
      "ü": 187,
      "ý": 188,
      "þ": 189,
      "ÿ": 190,
      "ā": 191,
      "ă": 192,
      "ą": 193,
      "ć": 194,
      "ĉ": 195,
      "ċ": 196,
      "č": 197,
      "ď": 198,
      "đ": 199,
      "ē": 200,
      "ĕ": 201,
      "ė": 202,
      "ę": 203,
      "ě": 204,
      "ĝ": 205,
      "ğ": 206,
      "ġ": 207,
      "ģ": 208,
      "ĥ": 209,
      "ħ": 210,
      "ĩ": 211,
      "ī": 212,
      "ĭ": 213,
      "į": 214,
      "ı": 215,
      "ĳ": 216,
      "ĵ": 217,
      "ķ": 218,
      "ĺ": 219,
      "ļ": 220,
      "ľ": 221,
      "ł": 222,
      "ń": 223,
      "ņ": 224,
      "ň": 225,
      "ŋ": 226,
      "ō": 227,
      "ŏ": 228,
      "ő": 229,
      "œ": 230,
      "ŕ": 231,
      "ř": 232,
      "ś": 233,
      "ŝ": 234,
      "ş": 235,
      "š": 236,
      "ţ": 237,
      "ť": 238,
      "ũ": 239,
      "ū": 240,
      "ŭ": 241,
      "ů": 242,
      "ű": 243,
      "ų": 244,
      "ŵ": 245,
      "ŷ": 246,
      "ź": 247,
      "ż": 248,
      "ž": 249,
      "ƅ": 250,
      "ƒ": 251,
      "ƙ": 252,
      "ơ": 253,
      "ư": 254,
      "ƴ": 255,
      "ƶ": 256,
      "ǌ": 257,
      "ǎ": 258,
      "ǔ": 259,
      "ǖ": 260,
      "ǜ": 261,
      "ǧ": 262,
      "ǫ": 263,
      "ǻ": 264,
      "ǿ": 265,
      "ȅ": 266,
      "ș": 267,
      "ț": 268,
      "ɂ": 269,
      "ɓ": 270,
      "ɔ": 271,
      "ɗ": 272,
      "ə": 273,
      "ɛ": 274,
      "ɲ": 275,
      "ɶ": 276,
      "ʔ": 277,
      "ʹ": 278,
      "ʺ": 279,
      "ʻ": 280,
      "ʼ": 281,
      "ˆ": 282,
      "ˇ": 283,
      "ˉ": 284,
      "˘": 285,
      "˙": 286,
      "˚": 287,
      "˛": 288,
      "˜": 289,
      "˝": 290,
      "̀": 291,
      "́": 292,
      "̂": 293,
      "̃": 294,
      "̄": 295,
      "̇": 296,
      "̊": 297,
      "̌": 298,
      "̓": 299,
      "̧": 300,
      "̨": 301,
      "̩": 302,
      "̱": 303,
      "̵": 304,
      "̶": 305,
      "̹": 306,
      "ͦ": 307,
      "ͱ": 308,
      ";": 309,
      "΄": 310,
      "·": 311,
      "ΐ": 312,
      "ά": 313,
      "έ": 314,
      "ή": 315,
      "ί": 316,
      "ΰ": 317,
      "α": 318,
      "β": 319,
      "γ": 320,
      "δ": 321,
      "ε": 322,
      "ζ": 323,
      "η": 324,
      "θ": 325,
      "ι": 326,
      "κ": 327,
      "λ": 328,
      "μ": 329,
      "ν": 330,
      "ξ": 331,
      "ο": 332,
      "π": 333,
      "ρ": 334,
      "ς": 335,
      "σ": 336,
      "τ": 337,
      "υ": 338,
      "φ": 339,
      "χ": 340,
      "ψ": 341,
      "ω": 342,
      "ϊ": 343,
      "ϋ": 344,
      "ό": 345,
      "ύ": 346,
      "ώ": 347,
      "ϑ": 348,
      "ϒ": 349,
      "ϕ": 350,
      "ϖ": 351,
      "а": 352,
      "б": 353,
      "в": 354,
      "г": 355,
      "д": 356,
      "е": 357,
      "ж": 358,
      "з": 359,
      "и": 360,
      "й": 361,
      "к": 362,
      "л": 363,
      "м": 364,
      "н": 365,
      "о": 366,
      "п": 367,
      "р": 368,
      "с": 369,
      "т": 370,
      "у": 371,
      "ф": 372,
      "х": 373,
      "ц": 374,
      "ч": 375,
      "ш": 376,
      "щ": 377,
      "ъ": 378,
      "ы": 379,
      "ь": 380,
      "э": 381,
      "ю": 382,
      "я": 383,
      "ё": 384,
      "ђ": 385,
      "є": 386,
      "і": 387,
      "ї": 388,
      "ј": 389,
      "љ": 390,
      "њ": 391,
      "ћ": 392,
      "ѥ": 393,
      "ѭ": 394,
      "ґ": 395,
      "ө": 396,
      "ԁ": 397,
      "׀": 398,
      "א": 399,
      "ב": 400,
      "ד": 401,
      "ה": 402,
      "ו": 403,
      "ז": 404,
      "ח": 405,
      "י": 406,
      "ל": 407,
      "ם": 408,
      "מ": 409,
      "נ": 410,
      "ע": 411,
      "פ": 412,
      "ק": 413,
      "ר": 414,
      "ש": 415,
      "ת": 416,
      "״": 417,
      "،": 418,
      "؛": 419,
      "ء": 420,
      "آ": 421,
      "أ": 422,
      "ؤ": 423,
      "إ": 424,
      "ئ": 425,
      "ا": 426,
      "ب": 427,
      "ة": 428,
      "ت": 429,
      "ث": 430,
      "ج": 431,
      "ح": 432,
      "خ": 433,
      "د": 434,
      "ذ": 435,
      "ر": 436,
      "ز": 437,
      "س": 438,
      "ش": 439,
      "ص": 440,
      "ض": 441,
      "ط": 442,
      "ظ": 443,
      "ع": 444,
      "غ": 445,
      "ـ": 446,
      "ف": 447,
      "ق": 448,
      "ك": 449,
      "ل": 450,
      "م": 451,
      "ن": 452,
      "ه": 453,
      "و": 454,
      "ى": 455,
      "ي": 456,
      "ً": 457,
      "ٍ": 458,
      "َ": 459,
      "ُ": 460,
      "ِ": 461,
      "ّ": 462,
      "٠": 463,
      "١": 464,
      "٢": 465,
      "٣": 466,
      "٤": 467,
      "٥": 468,
      "٦": 469,
      "٧": 470,
      "٨": 471,
      "٩": 472,
      "٭": 473,
      "ٱ": 474,
      "پ": 475,
      "ڈ": 476,
      "ژ": 477,
      "ڤ": 478,
      "گ": 479,
      "ھ": 480,
      "ہ": 481,
      "ی": 482,
      "ۚ": 483,
      "܌": 484,
      "ૻ": 485,
      "ഋ": 486,
      "൅": 487,
      "ท": 488,
      "ย": 489,
      "ไ": 490,
      "ၳ": 491,
      "ᆠ": 492,
      "ᐁ": 493,
      "ᐃ": 494,
      "ᐅ": 495,
      "ᐆ": 496,
      "ᐊ": 497,
      "ᐋ": 498,
      "ᐟ": 499,
      "ᐠ": 500,
      "ᐡ": 501,
      "ᐢ": 502,
      "ᐣ": 503,
      "ᐤ": 504,
      "ᐦ": 505,
      "ᐧ": 506,
      "ᐨ": 507,
      "ᐯ": 508,
      "ᐱ": 509,
      "ᐲ": 510,
      "ᐳ": 511,
      "ᐴ": 512,
      "ᐸ": 513,
      "ᐹ": 514,
      "ᑈ": 515,
      "ᑉ": 516,
      "ᑊ": 517,
      "ᑌ": 518,
      "ᑎ": 519,
      "ᑏ": 520,
      "ᑐ": 521,
      "ᑑ": 522,
      "ᑕ": 523,
      "ᑖ": 524,
      "ᑥ": 525,
      "ᑦ": 526,
      "ᑫ": 527,
      "ᑭ": 528,
      "ᑮ": 529,
      "ᑯ": 530,
      "ᑰ": 531,
      "ᑲ": 532,
      "ᑳ": 533,
      "ᒂ": 534,
      "ᒃ": 535,
      "ᒋ": 536,
      "ᒌ": 537,
      "ᒍ": 538,
      "ᒎ": 539,
      "ᒐ": 540,
      "ᒑ": 541,
      "ᒠ": 542,
      "ᒡ": 543,
      "ᒥ": 544,
      "ᒦ": 545,
      "ᒧ": 546,
      "ᒪ": 547,
      "ᒫ": 548,
      "ᒻ": 549,
      "ᓀ": 550,
      "ᓂ": 551,
      "ᓃ": 552,
      "ᓄ": 553,
      "ᓅ": 554,
      "ᓇ": 555,
      "ᓈ": 556,
      "ᓐ": 557,
      "ᓕ": 558,
      "ᓖ": 559,
      "ᓗ": 560,
      "ᓘ": 561,
      "ᓚ": 562,
      "ᓛ": 563,
      "ᓪ": 564,
      "ᓭ": 565,
      "ᓯ": 566,
      "ᓰ": 567,
      "ᓱ": 568,
      "ᓲ": 569,
      "ᓴ": 570,
      "ᓵ": 571,
      "ᔅ": 572,
      "ᔌ": 573,
      "ᔍ": 574,
      "ᔎ": 575,
      "ᔏ": 576,
      "ᔑ": 577,
      "ᔓ": 578,
      "ᔕ": 579,
      "ᔨ": 580,
      "ᔩ": 581,
      "ᔪ": 582,
      "ᔫ": 583,
      "ᔭ": 584,
      "ᔮ": 585,
      "ᔾ": 586,
      "ᕆ": 587,
      "ᕇ": 588,
      "ᕈ": 589,
      "ᕉ": 590,
      "ᕋ": 591,
      "ᕌ": 592,
      "ᕐ": 593,
      "ᕑ": 594,
      "ᕕ": 595,
      "ᕖ": 596,
      "ᕗ": 597,
      "ᕘ": 598,
      "ᕙ": 599,
      "ᕚ": 600,
      "ᕝ": 601,
      "ᕼ": 602,
      "ᕿ": 603,
      "ᖁ": 604,
      "ᖂ": 605,
      "ᖃ": 606,
      "ᖄ": 607,
      "ᖅ": 608,
      "ᖏ": 609,
      "ᖑ": 610,
      "ᖓ": 611,
      "ᖔ": 612,
      "ᖕ": 613,
      "ᖠ": 614,
      "ᖢ": 615,
      "ᖦ": 616,
      "ᙱ": 617,
      "ᙲ": 618,
      "ᙳ": 619,
      "ᙵ": 620,
      "ᙶ": 621,
      "ᮖ": 622,
      "ḏ": 623,
      "ḵ": 624,
      "ṯ": 625,
      "ẃ": 626,
      "ẕ": 627,
      "ạ": 628,
      "ả": 629,
      "ấ": 630,
      "ầ": 631,
      "ẩ": 632,
      "ậ": 633,
      "ắ": 634,
      "ằ": 635,
      "ẳ": 636,
      "ặ": 637,
      "ẻ": 638,
      "ẽ": 639,
      "ế": 640,
      "ề": 641,
      "ể": 642,
      "ệ": 643,
      "ỉ": 644,
      "ị": 645,
      "ọ": 646,
      "ố": 647,
      "ồ": 648,
      "ổ": 649,
      "ộ": 650,
      "ớ": 651,
      "ờ": 652,
      "ở": 653,
      "ợ": 654,
      "ụ": 655,
      "ủ": 656,
      "ứ": 657,
      "ừ": 658,
      "ử": 659,
      "ữ": 660,
      "ự": 661,
      "ỳ": 662,
      "᾿": 663,
      "ῆ": 664,
      "‌": 665,
      "‍": 666,
      "‎": 667,
      "‏": 668,
      "‐": 669,
      "‑": 670,
      "‒": 671,
      "–": 672,
      "—": 673,
      "―": 674,
      "‖": 675,
      "‘": 676,
      "’": 677,
      "‚": 678,
      "‛": 679,
      "“": 680,
      "”": 681,
      "„": 682,
      "‟": 683,
      "†": 684,
      "‡": 685,
      "•": 686,
      "‣": 687,
      "…": 688,
      "‧": 689,
      "‪": 690,
      "‫": 691,
      "‬": 692,
      "‰": 693,
      "′": 694,
      "″": 695,
      "‴": 696,
      "‹": 697,
      "›": 698,
      "‾": 699,
      "⁁": 700,
      "⁄": 701,
      "⁏": 702,
      "⁪": 703,
      "⁬": 704,
      "⁭": 705,
      "⁮": 706,
      "⁯": 707,
      "⁷": 708,
      "₀": 709,
      "₁": 710,
      "₂": 711,
      "₤": 712,
      "€": 713,
      "⃞": 714,
      "ℓ": 715,
      "№": 716,
      "ℜ": 717,
      "℡": 718,
      "™": 719,
      "⅓": 720,
      "⅔": 721,
      "⅛": 722,
      "⅜": 723,
      "⅝": 724,
      "←": 725,
      "↑": 726,
      "→": 727,
      "↓": 728,
      "↔": 729,
      "↗": 730,
      "↘": 731,
      "↵": 732,
      "⇅": 733,
      "⇆": 734,
      "⇌": 735,
      "⇑": 736,
      "⇒": 737,
      "⇓": 738,
      "⇔": 739,
      "⇘": 740,
      "⇙": 741,
      "∀": 742,
      "∂": 743,
      "∃": 744,
      "∅": 745,
      "∆": 746,
      "∇": 747,
      "∈": 748,
      "∋": 749,
      "∍": 750,
      "∏": 751,
      "∑": 752,
      "−": 753,
      "∕": 754,
      "∗": 755,
      "∘": 756,
      "∙": 757,
      "√": 758,
      "∝": 759,
      "∞": 760,
      "∩": 761,
      "∪": 762,
      "∫": 763,
      "∴": 764,
      "∼": 765,
      "≅": 766,
      "≈": 767,
      "≍": 768,
      "≠": 769,
      "≡": 770,
      "≤": 771,
      "≥": 772,
      "≪": 773,
      "⊂": 774,
      "⊃": 775,
      "⊇": 776,
      "⊔": 777,
      "⊕": 778,
      "⊥": 779,
      "⋅": 780,
      "⋞": 781,
      "⋟": 782,
      "⌂": 783,
      "⌋": 784,
      "⌠": 785,
      "⌦": 786,
      "⌧": 787,
      "〈": 788,
      "〉": 789,
      "⌫": 790,
      "⎛": 791,
      "⎜": 792,
      "⎝": 793,
      "⎞": 794,
      "⎟": 795,
      "⎠": 796,
      "⎡": 797,
      "⎢": 798,
      "⎣": 799,
      "⎤": 800,
      "⎥": 801,
      "⎦": 802,
      "⎧": 803,
      "⎨": 804,
      "⎩": 805,
      "⎮": 806,
      "⎯": 807,
      "⏐": 808,
      "⏹": 809,
      "①": 810,
      "②": 811,
      "ⓓ": 812,
      "─": 813,
      "━": 814,
      "│": 815,
      "┌": 816,
      "┐": 817,
      "└": 818,
      "┬": 819,
      "┴": 820,
      "║": 821,
      "▀": 822,
      "█": 823,
      "▌": 824,
      "▐": 825,
      "░": 826,
      "▘": 827,
      "■": 828,
      "□": 829,
      "▢": 830,
      "▪": 831,
      "▫": 832,
      "▬": 833,
      "▲": 834,
      "▵": 835,
      "▸": 836,
      "►": 837,
      "▼": 838,
      "◄": 839,
      "◆": 840,
      "◊": 841,
      "○": 842,
      "●": 843,
      "◗": 844,
      "◘": 845,
      "◦": 846,
      "★": 847,
      "☎": 848,
      "☐": 849,
      "☑": 850,
      "☛": 851,
      "☯": 852,
      "☺": 853,
      "☻": 854,
      "☼": 855,
      "♀": 856,
      "♂": 857,
      "♒": 858,
      "♠": 859,
      "♣": 860,
      "♥": 861,
      "♦": 862,
      "♪": 863,
      "✁": 864,
      "✂": 865,
      "✃": 866,
      "✄": 867,
      "✆": 868,
      "✇": 869,
      "✈": 870,
      "✉": 871,
      "✍": 872,
      "✏": 873,
      "✐": 874,
      "✓": 875,
      "✔": 876,
      "✕": 877,
      "✖": 878,
      "✗": 879,
      "✘": 880,
      "✜": 881,
      "✝": 882,
      "✢": 883,
      "✤": 884,
      "✦": 885,
      "✧": 886,
      "✭": 887,
      "✱": 888,
      "✳": 889,
      "✴": 890,
      "✵": 891,
      "❁": 892,
      "❆": 893,
      "❈": 894,
      "❊": 895,
      "❋": 896,
      "❍": 897,
      "❏": 898,
      "❐": 899,
      "❑": 900,
      "❒": 901,
      "❖": 902,
      "❙": 903,
      "❚": 904,
      "❯": 905,
      "❶": 906,
      "❷": 907,
      "➀": 908,
      "➁": 909,
      "➄": 910,
      "➊": 911,
      "➋": 912,
      "➌": 913,
      "➍": 914,
      "➎": 915,
      "➏": 916,
      "➑": 917,
      "➓": 918,
      "➔": 919,
      "➘": 920,
      "➙": 921,
      "➚": 922,
      "➛": 923,
      "➜": 924,
      "➝": 925,
      "➞": 926,
      "➟": 927,
      "➠": 928,
      "➡": 929,
      "➢": 930,
      "➣": 931,
      "➤": 932,
      "➥": 933,
      "➧": 934,
      "➨": 935,
      "➩": 936,
      "➪": 937,
      "➫": 938,
      "➮": 939,
      "➯": 940,
      "➲": 941,
      "➾": 942,
      "、": 943,
      "。": 944,
      "〈": 945,
      "《": 946,
      "》": 947,
      "『": 948,
      "』": 949,
      "い": 950,
      "か": 951,
      "が": 952,
      "こ": 953,
      "さ": 954,
      "し": 955,
      "す": 956,
      "そ": 957,
      "て": 958,
      "で": 959,
      "と": 960,
      "に": 961,
      "の": 962,
      "は": 963,
      "ま": 964,
      "ら": 965,
      "る": 966,
      "れ": 967,
      "を": 968,
      "ア": 969,
      "ウ": 970,
      "ォ": 971,
      "ク": 972,
      "シ": 973,
      "ジ": 974,
      "ス": 975,
      "セ": 976,
      "タ": 977,
      "ッ": 978,
      "テ": 979,
      "ト": 980,
      "ニ": 981,
      "パ": 982,
      "フ": 983,
      "ペ": 984,
      "ホ": 985,
      "マ": 986,
      "ム": 987,
      "ュ": 988,
      "ョ": 989,
      "ヨ": 990,
      "ラ": 991,
      "リ": 992,
      "ル": 993,
      "ロ": 994,
      "ン": 995,
      "・": 996,
      "ー": 997,
      "䁲": 998,
      "䨂": 999,
      "䨢": 1000,
      "䰂": 1001,
      "䰄": 1002,
      "䰚": 1003,
      "䰦": 1004,
      "䰨": 1005,
      "䰪": 1006,
      "一": 1007,
      "丁": 1008,
      "七": 1009,
      "万": 1010,
      "三": 1011,
      "上": 1012,
      "下": 1013,
      "不": 1014,
      "与": 1015,
      "专": 1016,
      "世": 1017,
      "业": 1018,
      "东": 1019,
      "两": 1020,
      "严": 1021,
      "个": 1022,
      "中": 1023,
      "临": 1024,
      "丸": 1025,
      "丹": 1026,
      "为": 1027,
      "主": 1028,
      "举": 1029,
      "乃": 1030,
      "久": 1031,
      "义": 1032,
      "之": 1033,
      "乌": 1034,
      "乏": 1035,
      "也": 1036,
      "书": 1037,
      "买": 1038,
      "了": 1039,
      "予": 1040,
      "争": 1041,
      "事": 1042,
      "二": 1043,
      "于": 1044,
      "五": 1045,
      "亚": 1046,
      "些": 1047,
      "交": 1048,
      "产": 1049,
      "享": 1050,
      "京": 1051,
      "人": 1052,
      "今": 1053,
      "介": 1054,
      "仍": 1055,
      "从": 1056,
      "他": 1057,
      "付": 1058,
      "代": 1059,
      "令": 1060,
      "以": 1061,
      "们": 1062,
      "仲": 1063,
      "件": 1064,
      "价": 1065,
      "任": 1066,
      "份": 1067,
      "企": 1068,
      "伊": 1069,
      "伏": 1070,
      "休": 1071,
      "众": 1072,
      "优": 1073,
      "会": 1074,
      "传": 1075,
      "伦": 1076,
      "伯": 1077,
      "估": 1078,
      "伶": 1079,
      "但": 1080,
      "佈": 1081,
      "位": 1082,
      "住": 1083,
      "体": 1084,
      "何": 1085,
      "佛": 1086,
      "作": 1087,
      "佩": 1088,
      "使": 1089,
      "例": 1090,
      "供": 1091,
      "依": 1092,
      "価": 1093,
      "便": 1094,
      "促": 1095,
      "俄": 1096,
      "保": 1097,
      "信": 1098,
      "修": 1099,
      "候": 1100,
      "借": 1101,
      "値": 1102,
      "债": 1103,
      "值": 1104,
      "假": 1105,
      "做": 1106,
      "停": 1107,
      "健": 1108,
      "偿": 1109,
      "储": 1110,
      "催": 1111,
      "像": 1112,
      "僚": 1113,
      "儿": 1114,
      "允": 1115,
      "元": 1116,
      "充": 1117,
      "兆": 1118,
      "先": 1119,
      "光": 1120,
      "克": 1121,
      "免": 1122,
      "兒": 1123,
      "入": 1124,
      "全": 1125,
      "八": 1126,
      "公": 1127,
      "六": 1128,
      "兰": 1129,
      "共": 1130,
      "关": 1131,
      "兵": 1132,
      "其": 1133,
      "具": 1134,
      "典": 1135,
      "兹": 1136,
      "养": 1137,
      "内": 1138,
      "写": 1139,
      "军": 1140,
      "农": 1141,
      "冰": 1142,
      "决": 1143,
      "况": 1144,
      "冷": 1145,
      "净": 1146,
      "准": 1147,
      "减": 1148,
      "几": 1149,
      "凡": 1150,
      "凭": 1151,
      "凯": 1152,
      "出": 1153,
      "击": 1154,
      "函": 1155,
      "分": 1156,
      "刑": 1157,
      "划": 1158,
      "列": 1159,
      "刘": 1160,
      "则": 1161,
      "刚": 1162,
      "创": 1163,
      "初": 1164,
      "判": 1165,
      "別": 1166,
      "利": 1167,
      "别": 1168,
      "到": 1169,
      "制": 1170,
      "刷": 1171,
      "券": 1172,
      "則": 1173,
      "前": 1174,
      "剑": 1175,
      "副": 1176,
      "劃": 1177,
      "力": 1178,
      "办": 1179,
      "加": 1180,
      "务": 1181,
      "动": 1182,
      "助": 1183,
      "努": 1184,
      "励": 1185,
      "劳": 1186,
      "势": 1187,
      "勒": 1188,
      "動": 1189,
      "務": 1190,
      "包": 1191,
      "匈": 1192,
      "化": 1193,
      "北": 1194,
      "区": 1195,
      "医": 1196,
      "區": 1197,
      "十": 1198,
      "千": 1199,
      "升": 1200,
      "午": 1201,
      "华": 1202,
      "协": 1203,
      "協": 1204,
      "单": 1205,
      "南": 1206,
      "占": 1207,
      "卡": 1208,
      "卢": 1209,
      "卫": 1210,
      "印": 1211,
      "危": 1212,
      "即": 1213,
      "却": 1214,
      "厄": 1215,
      "厅": 1216,
      "厉": 1217,
      "原": 1218,
      "厨": 1219,
      "去": 1220,
      "参": 1221,
      "參": 1222,
      "又": 1223,
      "及": 1224,
      "反": 1225,
      "发": 1226,
      "取": 1227,
      "受": 1228,
      "变": 1229,
      "叙": 1230,
      "口": 1231,
      "古": 1232,
      "另": 1233,
      "只": 1234,
      "可": 1235,
      "台": 1236,
      "号": 1237,
      "司": 1238,
      "吁": 1239,
      "各": 1240,
      "合": 1241,
      "吉": 1242,
      "同": 1243,
      "名": 1244,
      "后": 1245,
      "向": 1246,
      "含": 1247,
      "启": 1248,
      "告": 1249,
      "员": 1250,
      "周": 1251,
      "和": 1252,
      "咨": 1253,
      "品": 1254,
      "哈": 1255,
      "响": 1256,
      "員": 1257,
      "哥": 1258,
      "唱": 1259,
      "商": 1260,
      "善": 1261,
      "喜": 1262,
      "單": 1263,
      "器": 1264,
      "囚": 1265,
      "四": 1266,
      "回": 1267,
      "因": 1268,
      "团": 1269,
      "围": 1270,
      "国": 1271,
      "图": 1272,
      "圖": 1273,
      "土": 1274,
      "圣": 1275,
      "在": 1276,
      "圭": 1277,
      "地": 1278,
      "场": 1279,
      "址": 1280,
      "坚": 1281,
      "坛": 1282,
      "坦": 1283,
      "型": 1284,
      "垒": 1285,
      "埃": 1286,
      "城": 1287,
      "域": 1288,
      "執": 1289,
      "培": 1290,
      "基": 1291,
      "堂": 1292,
      "堡": 1293,
      "報": 1294,
      "場": 1295,
      "塔": 1296,
      "塞": 1297,
      "境": 1298,
      "墅": 1299,
      "增": 1300,
      "墨": 1301,
      "士": 1302,
      "声": 1303,
      "处": 1304,
      "备": 1305,
      "変": 1306,
      "复": 1307,
      "外": 1308,
      "多": 1309,
      "够": 1310,
      "大": 1311,
      "太": 1312,
      "夫": 1313,
      "央": 1314,
      "失": 1315,
      "头": 1316,
      "套": 1317,
      "奥": 1318,
      "女": 1319,
      "好": 1320,
      "如": 1321,
      "妮": 1322,
      "姆": 1323,
      "始": 1324,
      "姓": 1325,
      "委": 1326,
      "威": 1327,
      "娅": 1328,
      "娜": 1329,
      "媒": 1330,
      "嫩": 1331,
      "子": 1332,
      "孔": 1333,
      "字": 1334,
      "存": 1335,
      "学": 1336,
      "學": 1337,
      "宁": 1338,
      "它": 1339,
      "宅": 1340,
      "安": 1341,
      "完": 1342,
      "宗": 1343,
      "官": 1344,
      "定": 1345,
      "宛": 1346,
      "实": 1347,
      "审": 1348,
      "客": 1349,
      "宣": 1350,
      "室": 1351,
      "宪": 1352,
      "宫": 1353,
      "害": 1354,
      "家": 1355,
      "容": 1356,
      "宾": 1357,
      "宿": 1358,
      "寄": 1359,
      "富": 1360,
      "寓": 1361,
      "察": 1362,
      "对": 1363,
      "寻": 1364,
      "导": 1365,
      "射": 1366,
      "将": 1367,
      "專": 1368,
      "對": 1369,
      "小": 1370,
      "少": 1371,
      "尔": 1372,
      "尤": 1373,
      "就": 1374,
      "尼": 1375,
      "局": 1376,
      "层": 1377,
      "居": 1378,
      "届": 1379,
      "展": 1380,
      "属": 1381,
      "山": 1382,
      "岛": 1383,
      "峡": 1384,
      "州": 1385,
      "巡": 1386,
      "工": 1387,
      "差": 1388,
      "已": 1389,
      "巴": 1390,
      "市": 1391,
      "布": 1392,
      "帆": 1393,
      "师": 1394,
      "希": 1395,
      "帐": 1396,
      "帝": 1397,
      "带": 1398,
      "席": 1399,
      "帮": 1400,
      "帳": 1401,
      "常": 1402,
      "干": 1403,
      "平": 1404,
      "年": 1405,
      "并": 1406,
      "广": 1407,
      "庆": 1408,
      "序": 1409,
      "库": 1410,
      "应": 1411,
      "府": 1412,
      "废": 1413,
      "度": 1414,
      "庭": 1415,
      "康": 1416,
      "廉": 1417,
      "廚": 1418,
      "延": 1419,
      "廷": 1420,
      "建": 1421,
      "开": 1422,
      "弃": 1423,
      "式": 1424,
      "引": 1425,
      "弗": 1426,
      "弱": 1427,
      "强": 1428,
      "当": 1429,
      "录": 1430,
      "形": 1431,
      "影": 1432,
      "往": 1433,
      "征": 1434,
      "径": 1435,
      "待": 1436,
      "律": 1437,
      "徐": 1438,
      "徒": 1439,
      "得": 1440,
      "微": 1441,
      "德": 1442,
      "心": 1443,
      "必": 1444,
      "忍": 1445,
      "志": 1446,
      "忘": 1447,
      "忙": 1448,
      "忠": 1449,
      "快": 1450,
      "念": 1451,
      "急": 1452,
      "性": 1453,
      "总": 1454,
      "恩": 1455,
      "息": 1456,
      "悬": 1457,
      "情": 1458,
      "意": 1459,
      "感": 1460,
      "愿": 1461,
      "憾": 1462,
      "戈": 1463,
      "成": 1464,
      "我": 1465,
      "或": 1466,
      "战": 1467,
      "戶": 1468,
      "户": 1469,
      "房": 1470,
      "所": 1471,
      "才": 1472,
      "打": 1473,
      "托": 1474,
      "执": 1475,
      "扩": 1476,
      "批": 1477,
      "找": 1478,
      "承": 1479,
      "技": 1480,
      "把": 1481,
      "投": 1482,
      "护": 1483,
      "报": 1484,
      "抵": 1485,
      "担": 1486,
      "拉": 1487,
      "招": 1488,
      "拜": 1489,
      "拟": 1490,
      "拥": 1491,
      "拨": 1492,
      "择": 1493,
      "括": 1494,
      "拳": 1495,
      "拿": 1496,
      "持": 1497,
      "指": 1498,
      "按": 1499,
      "挑": 1500,
      "挪": 1501,
      "捐": 1502,
      "换": 1503,
      "据": 1504,
      "捷": 1505,
      "授": 1506,
      "掉": 1507,
      "掌": 1508,
      "排": 1509,
      "接": 1510,
      "控": 1511,
      "推": 1512,
      "措": 1513,
      "提": 1514,
      "揭": 1515,
      "援": 1516,
      "搁": 1517,
      "搞": 1518,
      "搬": 1519,
      "摊": 1520,
      "摘": 1521,
      "摩": 1522,
      "撒": 1523,
      "撤": 1524,
      "擁": 1525,
      "操": 1526,
      "支": 1527,
      "收": 1528,
      "改": 1529,
      "放": 1530,
      "政": 1531,
      "故": 1532,
      "效": 1533,
      "敌": 1534,
      "救": 1535,
      "教": 1536,
      "散": 1537,
      "数": 1538,
      "整": 1539,
      "文": 1540,
      "料": 1541,
      "斤": 1542,
      "断": 1543,
      "斯": 1544,
      "新": 1545,
      "方": 1546,
      "於": 1547,
      "施": 1548,
      "旅": 1549,
      "日": 1550,
      "旦": 1551,
      "旨": 1552,
      "时": 1553,
      "明": 1554,
      "易": 1555,
      "映": 1556,
      "昨": 1557,
      "是": 1558,
      "显": 1559,
      "晚": 1560,
      "普": 1561,
      "景": 1562,
      "晶": 1563,
      "智": 1564,
      "暖": 1565,
      "暴": 1566,
      "曲": 1567,
      "更": 1568,
      "書": 1569,
      "曹": 1570,
      "曼": 1571,
      "替": 1572,
      "最": 1573,
      "會": 1574,
      "月": 1575,
      "有": 1576,
      "服": 1577,
      "朗": 1578,
      "望": 1579,
      "朝": 1580,
      "期": 1581,
      "木": 1582,
      "本": 1583,
      "术": 1584,
      "朱": 1585,
      "机": 1586,
      "杂": 1587,
      "权": 1588,
      "李": 1589,
      "材": 1590,
      "条": 1591,
      "来": 1592,
      "杨": 1593,
      "杭": 1594,
      "東": 1595,
      "松": 1596,
      "板": 1597,
      "构": 1598,
      "析": 1599,
      "林": 1600,
      "果": 1601,
      "枪": 1602,
      "架": 1603,
      "柏": 1604,
      "查": 1605,
      "栄": 1606,
      "标": 1607,
      "校": 1608,
      "样": 1609,
      "核": 1610,
      "根": 1611,
      "格": 1612,
      "框": 1613,
      "案": 1614,
      "桑": 1615,
      "档": 1616,
      "梅": 1617,
      "梯": 1618,
      "检": 1619,
      "森": 1620,
      "植": 1621,
      "業": 1622,
      "楼": 1623,
      "概": 1624,
      "槍": 1625,
      "樊": 1626,
      "機": 1627,
      "權": 1628,
      "次": 1629,
      "欢": 1630,
      "欧": 1631,
      "款": 1632,
      "歌": 1633,
      "止": 1634,
      "正": 1635,
      "此": 1636,
      "步": 1637,
      "死": 1638,
      "残": 1639,
      "殖": 1640,
      "殘": 1641,
      "段": 1642,
      "殺": 1643,
      "母": 1644,
      "毎": 1645,
      "每": 1646,
      "毒": 1647,
      "比": 1648,
      "毛": 1649,
      "民": 1650,
      "气": 1651,
      "気": 1652,
      "氣": 1653,
      "氧": 1654,
      "水": 1655,
      "永": 1656,
      "求": 1657,
      "汉": 1658,
      "汶": 1659,
      "沙": 1660,
      "没": 1661,
      "治": 1662,
      "泊": 1663,
      "法": 1664,
      "波": 1665,
      "注": 1666,
      "泰": 1667,
      "泳": 1668,
      "泽": 1669,
      "洁": 1670,
      "洋": 1671,
      "洛": 1672,
      "津": 1673,
      "洲": 1674,
      "活": 1675,
      "派": 1676,
      "流": 1677,
      "测": 1678,
      "济": 1679,
      "海": 1680,
      "消": 1681,
      "涉": 1682,
      "清": 1683,
      "済": 1684,
      "港": 1685,
      "游": 1686,
      "源": 1687,
      "滑": 1688,
      "满": 1689,
      "漏": 1690,
      "演": 1691,
      "潜": 1692,
      "澳": 1693,
      "濟": 1694,
      "火": 1695,
      "灾": 1696,
      "点": 1697,
      "焦": 1698,
      "然": 1699,
      "照": 1700,
      "煽": 1701,
      "燕": 1702,
      "爱": 1703,
      "爲": 1704,
      "版": 1705,
      "牙": 1706,
      "物": 1707,
      "特": 1708,
      "犯": 1709,
      "状": 1710,
      "狠": 1711,
      "独": 1712,
      "猎": 1713,
      "献": 1714,
      "獵": 1715,
      "獻": 1716,
      "率": 1717,
      "王": 1718,
      "环": 1719,
      "现": 1720,
      "玻": 1721,
      "珍": 1722,
      "班": 1723,
      "球": 1724,
      "理": 1725,
      "琴": 1726,
      "瑞": 1727,
      "環": 1728,
      "瓜": 1729,
      "瓦": 1730,
      "甘": 1731,
      "生": 1732,
      "産": 1733,
      "用": 1734,
      "田": 1735,
      "由": 1736,
      "申": 1737,
      "电": 1738,
      "甸": 1739,
      "界": 1740,
      "留": 1741,
      "略": 1742,
      "當": 1743,
      "疆": 1744,
      "疏": 1745,
      "疑": 1746,
      "疗": 1747,
      "疾": 1748,
      "病": 1749,
      "登": 1750,
      "發": 1751,
      "白": 1752,
      "百": 1753,
      "的": 1754,
      "皮": 1755,
      "益": 1756,
      "监": 1757,
      "盖": 1758,
      "盘": 1759,
      "盟": 1760,
      "目": 1761,
      "直": 1762,
      "相": 1763,
      "省": 1764,
      "真": 1765,
      "着": 1766,
      "督": 1767,
      "知": 1768,
      "石": 1769,
      "矿": 1770,
      "码": 1771,
      "研": 1772,
      "础": 1773,
      "确": 1774,
      "磁": 1775,
      "社": 1776,
      "祖": 1777,
      "神": 1778,
      "票": 1779,
      "福": 1780,
      "离": 1781,
      "秀": 1782,
      "私": 1783,
      "种": 1784,
      "科": 1785,
      "秘": 1786,
      "租": 1787,
      "积": 1788,
      "称": 1789,
      "移": 1790,
      "稅": 1791,
      "程": 1792,
      "税": 1793,
      "種": 1794,
      "稳": 1795,
      "稿": 1796,
      "穆": 1797,
      "究": 1798,
      "穷": 1799,
      "空": 1800,
      "穿": 1801,
      "突": 1802,
      "窗": 1803,
      "立": 1804,
      "站": 1805,
      "章": 1806,
      "童": 1807,
      "端": 1808,
      "笔": 1809,
      "符": 1810,
      "第": 1811,
      "等": 1812,
      "筑": 1813,
      "答": 1814,
      "策": 1815,
      "签": 1816,
      "简": 1817,
      "算": 1818,
      "管": 1819,
      "箭": 1820,
      "簽": 1821,
      "籍": 1822,
      "类": 1823,
      "粮": 1824,
      "精": 1825,
      "糖": 1826,
      "系": 1827,
      "約": 1828,
      "索": 1829,
      "紧": 1830,
      "細": 1831,
      "紹": 1832,
      "経": 1833,
      "網": 1834,
      "線": 1835,
      "績": 1836,
      "繁": 1837,
      "约": 1838,
      "级": 1839,
      "纳": 1840,
      "纽": 1841,
      "线": 1842,
      "练": 1843,
      "组": 1844,
      "细": 1845,
      "织": 1846,
      "终": 1847,
      "绍": 1848,
      "经": 1849,
      "结": 1850,
      "给": 1851,
      "络": 1852,
      "统": 1853,
      "继": 1854,
      "绩": 1855,
      "续": 1856,
      "维": 1857,
      "综": 1858,
      "绿": 1859,
      "缅": 1860,
      "缆": 1861,
      "编": 1862,
      "缩": 1863,
      "缴": 1864,
      "缺": 1865,
      "网": 1866,
      "罗": 1867,
      "罪": 1868,
      "置": 1869,
      "署": 1870,
      "美": 1871,
      "翰": 1872,
      "翻": 1873,
      "老": 1874,
      "考": 1875,
      "者": 1876,
      "而": 1877,
      "耳": 1878,
      "耶": 1879,
      "耽": 1880,
      "职": 1881,
      "联": 1882,
      "聘": 1883,
      "聚": 1884,
      "聞": 1885,
      "聽": 1886,
      "聾": 1887,
      "股": 1888,
      "肯": 1889,
      "育": 1890,
      "背": 1891,
      "能": 1892,
      "脑": 1893,
      "脚": 1894,
      "脱": 1895,
      "腊": 1896,
      "自": 1897,
      "至": 1898,
      "致": 1899,
      "舉": 1900,
      "舍": 1901,
      "般": 1902,
      "船": 1903,
      "艇": 1904,
      "良": 1905,
      "色": 1906,
      "艺": 1907,
      "艾": 1908,
      "节": 1909,
      "芬": 1910,
      "花": 1911,
      "苏": 1912,
      "若": 1913,
      "范": 1914,
      "茵": 1915,
      "草": 1916,
      "荫": 1917,
      "药": 1918,
      "荷": 1919,
      "莫": 1920,
      "莱": 1921,
      "获": 1922,
      "菲": 1923,
      "萄": 1924,
      "营": 1925,
      "萨": 1926,
      "葡": 1927,
      "蒂": 1928,
      "蔺": 1929,
      "薪": 1930,
      "虑": 1931,
      "虚": 1932,
      "血": 1933,
      "行": 1934,
      "补": 1935,
      "表": 1936,
      "袋": 1937,
      "被": 1938,
      "袭": 1939,
      "裁": 1940,
      "裔": 1941,
      "裩": 1942,
      "西": 1943,
      "要": 1944,
      "覆": 1945,
      "見": 1946,
      "視": 1947,
      "见": 1948,
      "观": 1949,
      "规": 1950,
      "视": 1951,
      "览": 1952,
      "角": 1953,
      "解": 1954,
      "言": 1955,
      "計": 1956,
      "訊": 1957,
      "設": 1958,
      "許": 1959,
      "診": 1960,
      "証": 1961,
      "評": 1962,
      "話": 1963,
      "認": 1964,
      "語": 1965,
      "論": 1966,
      "諸": 1967,
      "證": 1968,
      "警": 1969,
      "議": 1970,
      "護": 1971,
      "计": 1972,
      "订": 1973,
      "认": 1974,
      "讨": 1975,
      "训": 1976,
      "议": 1977,
      "讯": 1978,
      "记": 1979,
      "许": 1980,
      "论": 1981,
      "讼": 1982,
      "设": 1983,
      "访": 1984,
      "证": 1985,
      "评": 1986,
      "识": 1987,
      "诉": 1988,
      "诊": 1989,
      "译": 1990,
      "诗": 1991,
      "话": 1992,
      "诠": 1993,
      "询": 1994,
      "该": 1995,
      "语": 1996,
      "说": 1997,
      "请": 1998,
      "诺": 1999,
      "调": 2000,
      "谅": 2001,
      "谈": 2002,
      "象": 2003,
      "負": 2004,
      "責": 2005,
      "費": 2006,
      "貿": 2007,
      "資": 2008,
      "賑": 2009,
      "賬": 2010,
      "購": 2011,
      "贝": 2012,
      "负": 2013,
      "财": 2014,
      "责": 2015,
      "账": 2016,
      "货": 2017,
      "质": 2018,
      "贩": 2019,
      "贫": 2020,
      "购": 2021,
      "贴": 2022,
      "贷": 2023,
      "贸": 2024,
      "费": 2025,
      "资": 2026,
      "赈": 2027,
      "赔": 2028,
      "赖": 2029,
      "赛": 2030,
      "赞": 2031,
      "赠": 2032,
      "赵": 2033,
      "起": 2034,
      "越": 2035,
      "趋": 2036,
      "跃": 2037,
      "距": 2038,
      "跟": 2039,
      "路": 2040,
      "跳": 2041,
      "踪": 2042,
      "身": 2043,
      "車": 2044,
      "軍": 2045,
      "车": 2046,
      "轩": 2047,
      "转": 2048,
      "软": 2049,
      "轻": 2050,
      "载": 2051,
      "较": 2052,
      "辅": 2053,
      "辆": 2054,
      "辑": 2055,
      "输": 2056,
      "農": 2057,
      "边": 2058,
      "达": 2059,
      "迁": 2060,
      "迅": 2061,
      "过": 2062,
      "迈": 2063,
      "迎": 2064,
      "运": 2065,
      "近": 2066,
      "还": 2067,
      "这": 2068,
      "进": 2069,
      "远": 2070,
      "违": 2071,
      "连": 2072,
      "迟": 2073,
      "迪": 2074,
      "退": 2075,
      "送": 2076,
      "适": 2077,
      "选": 2078,
      "逊": 2079,
      "透": 2080,
      "逐": 2081,
      "递": 2082,
      "通": 2083,
      "速": 2084,
      "造": 2085,
      "逻": 2086,
      "遇": 2087,
      "道": 2088,
      "達": 2089,
      "遗": 2090,
      "選": 2091,
      "避": 2092,
      "那": 2093,
      "邦": 2094,
      "邮": 2095,
      "部": 2096,
      "都": 2097,
      "酋": 2098,
      "配": 2099,
      "酒": 2100,
      "酸": 2101,
      "醫": 2102,
      "采": 2103,
      "释": 2104,
      "里": 2105,
      "重": 2106,
      "野": 2107,
      "量": 2108,
      "金": 2109,
      "釣": 2110,
      "鉴": 2111,
      "銀": 2112,
      "鑒": 2113,
      "针": 2114,
      "钓": 2115,
      "银": 2116,
      "链": 2117,
      "销": 2118,
      "键": 2119,
      "長": 2120,
      "长": 2121,
      "門": 2122,
      "開": 2123,
      "関": 2124,
      "閣": 2125,
      "门": 2126,
      "问": 2127,
      "间": 2128,
      "闻": 2129,
      "阅": 2130,
      "防": 2131,
      "阳": 2132,
      "阿": 2133,
      "陀": 2134,
      "附": 2135,
      "际": 2136,
      "陈": 2137,
      "降": 2138,
      "限": 2139,
      "院": 2140,
      "除": 2141,
      "险": 2142,
      "陶": 2143,
      "隆": 2144,
      "随": 2145,
      "際": 2146,
      "障": 2147,
      "險": 2148,
      "难": 2149,
      "集": 2150,
      "雇": 2151,
      "雪": 2152,
      "零": 2153,
      "雷": 2154,
      "電": 2155,
      "需": 2156,
      "霍": 2157,
      "青": 2158,
      "非": 2159,
      "靠": 2160,
      "面": 2161,
      "革": 2162,
      "鞋": 2163,
      "韦": 2164,
      "韩": 2165,
      "音": 2166,
      "類": 2167,
      "顮": 2168,
      "页": 2169,
      "顶": 2170,
      "项": 2171,
      "顺": 2172,
      "须": 2173,
      "顾": 2174,
      "顿": 2175,
      "预": 2176,
      "领": 2177,
      "频": 2178,
      "题": 2179,
      "额": 2180,
      "颠": 2181,
      "风": 2182,
      "馆": 2183,
      "首": 2184,
      "香": 2185,
      "駕": 2186,
      "駛": 2187,
      "马": 2188,
      "驶": 2189,
      "驻": 2190,
      "驾": 2191,
      "验": 2192,
      "高": 2193,
      "髻": 2194,
      "魁": 2195,
      "魚": 2196,
      "鱼": 2197,
      "鲁": 2198,
      "麦": 2199,
      "黎": 2200,
      "黑": 2201,
      "鼓": 2202,
      "꣨": 2203,
      "가": 2204,
      "개": 2205,
      "거": 2206,
      "검": 2207,
      "게": 2208,
      "결": 2209,
      "경": 2210,
      "계": 2211,
      "고": 2212,
      "공": 2213,
      "과": 2214,
      "관": 2215,
      "교": 2216,
      "국": 2217,
      "군": 2218,
      "권": 2219,
      "규": 2220,
      "글": 2221,
      "금": 2222,
      "급": 2223,
      "기": 2224,
      "나": 2225,
      "납": 2226,
      "내": 2227,
      "년": 2228,
      "념": 2229,
      "뉴": 2230,
      "는": 2231,
      "능": 2232,
      "니": 2233,
      "다": 2234,
      "단": 2235,
      "달": 2236,
      "당": 2237,
      "대": 2238,
      "도": 2239,
      "되": 2240,
      "된": 2241,
      "됩": 2242,
      "등": 2243,
      "따": 2244,
      "라": 2245,
      "란": 2246,
      "랍": 2247,
      "래": 2248,
      "러": 2249,
      "레": 2250,
      "력": 2251,
      "련": 2252,
      "로": 2253,
      "록": 2254,
      "료": 2255,
      "류": 2256,
      "를": 2257,
      "름": 2258,
      "리": 2259,
      "만": 2260,
      "망": 2261,
      "매": 2262,
      "며": 2263,
      "면": 2264,
      "명": 2265,
      "무": 2266,
      "문": 2267,
      "미": 2268,
      "민": 2269,
      "및": 2270,
      "바": 2271,
      "발": 2272,
      "번": 2273,
      "범": 2274,
      "벽": 2275,
      "병": 2276,
      "보": 2277,
      "본": 2278,
      "봉": 2279,
      "부": 2280,
      "분": 2281,
      "불": 2282,
      "비": 2283,
      "사": 2284,
      "상": 2285,
      "서": 2286,
      "성": 2287,
      "소": 2288,
      "속": 2289,
      "송": 2290,
      "수": 2291,
      "술": 2292,
      "스": 2293,
      "습": 2294,
      "시": 2295,
      "신": 2296,
      "실": 2297,
      "안": 2298,
      "액": 2299,
      "야": 2300,
      "어": 2301,
      "업": 2302,
      "에": 2303,
      "여": 2304,
      "역": 2305,
      "영": 2306,
      "와": 2307,
      "완": 2308,
      "외": 2309,
      "요": 2310,
      "용": 2311,
      "우": 2312,
      "원": 2313,
      "월": 2314,
      "위": 2315,
      "유": 2316,
      "율": 2317,
      "은": 2318,
      "을": 2319,
      "음": 2320,
      "의": 2321,
      "이": 2322,
      "인": 2323,
      "일": 2324,
      "입": 2325,
      "있": 2326,
      "자": 2327,
      "작": 2328,
      "장": 2329,
      "재": 2330,
      "적": 2331,
      "전": 2332,
      "절": 2333,
      "접": 2334,
      "정": 2335,
      "제": 2336,
      "족": 2337,
      "졸": 2338,
      "좌": 2339,
      "죄": 2340,
      "주": 2341,
      "증": 2342,
      "지": 2343,
      "직": 2344,
      "진": 2345,
      "착": 2346,
      "채": 2347,
      "천": 2348,
      "첨": 2349,
      "청": 2350,
      "체": 2351,
      "초": 2352,
      "최": 2353,
      "출": 2354,
      "충": 2355,
      "치": 2356,
      "캐": 2357,
      "콩": 2358,
      "크": 2359,
      "타": 2360,
      "터": 2361,
      "통": 2362,
      "퇴": 2363,
      "투": 2364,
      "트": 2365,
      "포": 2366,
      "표": 2367,
      "하": 2368,
      "학": 2369,
      "한": 2370,
      "할": 2371,
      "함": 2372,
      "합": 2373,
      "해": 2374,
      "행": 2375,
      "허": 2376,
      "호": 2377,
      "혼": 2378,
      "홍": 2379,
      "화": 2380,
      "환": 2381,
      "회": 2382,
      "효": 2383,
      "휴": 2384,
      "ퟒ": 2385,
      "": 2386,
      "": 2387,
      "": 2388,
      "": 2389,
      "": 2390,
      "": 2391,
      "": 2392,
      "": 2393,
      "": 2394,
      "": 2395,
      "": 2396,
      "": 2397,
      "": 2398,
      "": 2399,
      "": 2400,
      "": 2401,
      "": 2402,
      "": 2403,
      "": 2404,
      "": 2405,
      "": 2406,
      "": 2407,
      "": 2408,
      "": 2409,
      "": 2410,
      "": 2411,
      "": 2412,
      "": 2413,
      "": 2414,
      "": 2415,
      "": 2416,
      "": 2417,
      "": 2418,
      "": 2419,
      "": 2420,
      "": 2421,
      "": 2422,
      "": 2423,
      "": 2424,
      "": 2425,
      "": 2426,
      "": 2427,
      "": 2428,
      "": 2429,
      "": 2430,
      "": 2431,
      "": 2432,
      "": 2433,
      "": 2434,
      "": 2435,
      "": 2436,
      "": 2437,
      "": 2438,
      "": 2439,
      "": 2440,
      "": 2441,
      "": 2442,
      "": 2443,
      "": 2444,
      "": 2445,
      "": 2446,
      "": 2447,
      "": 2448,
      "": 2449,
      "": 2450,
      "": 2451,
      "": 2452,
      "": 2453,
      "": 2454,
      "": 2455,
      "": 2456,
      "": 2457,
      "": 2458,
      "": 2459,
      "": 2460,
      "": 2461,
      "": 2462,
      "": 2463,
      "": 2464,
      "": 2465,
      "": 2466,
      "": 2467,
      "": 2468,
      "": 2469,
      "": 2470,
      "": 2471,
      "": 2472,
      "": 2473,
      "": 2474,
      "": 2475,
      "": 2476,
      "": 2477,
      "": 2478,
      "": 2479,
      "": 2480,
      "": 2481,
      "": 2482,
      "": 2483,
      "": 2484,
      "": 2485,
      "": 2486,
      "": 2487,
      "": 2488,
      "": 2489,
      "": 2490,
      "": 2491,
      "": 2492,
      "": 2493,
      "": 2494,
      "": 2495,
      "": 2496,
      "": 2497,
      "": 2498,
      "": 2499,
      "": 2500,
      "": 2501,
      "": 2502,
      "": 2503,
      "": 2504,
      "": 2505,
      "": 2506,
      "": 2507,
      "": 2508,
      "": 2509,
      "": 2510,
      "": 2511,
      "": 2512,
      "": 2513,
      "": 2514,
      "": 2515,
      "": 2516,
      "": 2517,
      "": 2518,
      "": 2519,
      "": 2520,
      "": 2521,
      "": 2522,
      "": 2523,
      "": 2524,
      "": 2525,
      "": 2526,
      "": 2527,
      "": 2528,
      "": 2529,
      "": 2530,
      "": 2531,
      "": 2532,
      "": 2533,
      "": 2534,
      "": 2535,
      "": 2536,
      "": 2537,
      "": 2538,
      "": 2539,
      "": 2540,
      "": 2541,
      "": 2542,
      "": 2543,
      "": 2544,
      "": 2545,
      "": 2546,
      "": 2547,
      "": 2548,
      "": 2549,
      "": 2550,
      "": 2551,
      "": 2552,
      "": 2553,
      "": 2554,
      "": 2555,
      "": 2556,
      "": 2557,
      "": 2558,
      "": 2559,
      "": 2560,
      "": 2561,
      "": 2562,
      "": 2563,
      "": 2564,
      "": 2565,
      "": 2566,
      "": 2567,
      "": 2568,
      "": 2569,
      "": 2570,
      "": 2571,
      "": 2572,
      "": 2573,
      "": 2574,
      "": 2575,
      "": 2576,
      "": 2577,
      "": 2578,
      "": 2579,
      "": 2580,
      "": 2581,
      "": 2582,
      "": 2583,
      "": 2584,
      "": 2585,
      "": 2586,
      "": 2587,
      "": 2588,
      "": 2589,
      "": 2590,
      "": 2591,
      "": 2592,
      "": 2593,
      "": 2594,
      "": 2595,
      "": 2596,
      "": 2597,
      "": 2598,
      "": 2599,
      "": 2600,
      "": 2601,
      "": 2602,
      "": 2603,
      "": 2604,
      "": 2605,
      "": 2606,
      "": 2607,
      "": 2608,
      "": 2609,
      "": 2610,
      "": 2611,
      "": 2612,
      "": 2613,
      "": 2614,
      "": 2615,
      "": 2616,
      "": 2617,
      "": 2618,
      "": 2619,
      "": 2620,
      "": 2621,
      "": 2622,
      "": 2623,
      "": 2624,
      "": 2625,
      "": 2626,
      "": 2627,
      "": 2628,
      "": 2629,
      "": 2630,
      "": 2631,
      "": 2632,
      "": 2633,
      "": 2634,
      "": 2635,
      "": 2636,
      "": 2637,
      "": 2638,
      "": 2639,
      "": 2640,
      "": 2641,
      "": 2642,
      "": 2643,
      "": 2644,
      "": 2645,
      "": 2646,
      "": 2647,
      "": 2648,
      "": 2649,
      "": 2650,
      "": 2651,
      "": 2652,
      "": 2653,
      "": 2654,
      "": 2655,
      "": 2656,
      "": 2657,
      "": 2658,
      "": 2659,
      "": 2660,
      "": 2661,
      "": 2662,
      "": 2663,
      "": 2664,
      "": 2665,
      "": 2666,
      "": 2667,
      "": 2668,
      "": 2669,
      "": 2670,
      "": 2671,
      "": 2672,
      "": 2673,
      "": 2674,
      "": 2675,
      "": 2676,
      "": 2677,
      "": 2678,
      "": 2679,
      "": 2680,
      "": 2681,
      "": 2682,
      "": 2683,
      "": 2684,
      "": 2685,
      "": 2686,
      "": 2687,
      "": 2688,
      "": 2689,
      "": 2690,
      "": 2691,
      "": 2692,
      "": 2693,
      "": 2694,
      "": 2695,
      "": 2696,
      "": 2697,
      "": 2698,
      "": 2699,
      "": 2700,
      "": 2701,
      "": 2702,
      "": 2703,
      "": 2704,
      "": 2705,
      "": 2706,
      "": 2707,
      "": 2708,
      "": 2709,
      "": 2710,
      "": 2711,
      "": 2712,
      "": 2713,
      "": 2714,
      "": 2715,
      "": 2716,
      "": 2717,
      "": 2718,
      "": 2719,
      "": 2720,
      "": 2721,
      "": 2722,
      "": 2723,
      "": 2724,
      "": 2725,
      "": 2726,
      "": 2727,
      "": 2728,
      "": 2729,
      "": 2730,
      "": 2731,
      "": 2732,
      "": 2733,
      "": 2734,
      "": 2735,
      "": 2736,
      "": 2737,
      "": 2738,
      "": 2739,
      "": 2740,
      "": 2741,
      "": 2742,
      "": 2743,
      "": 2744,
      "": 2745,
      "": 2746,
      "": 2747,
      "": 2748,
      "": 2749,
      "": 2750,
      "": 2751,
      "": 2752,
      "": 2753,
      "": 2754,
      "": 2755,
      "": 2756,
      "": 2757,
      "": 2758,
      "": 2759,
      "": 2760,
      "": 2761,
      "": 2762,
      "": 2763,
      "": 2764,
      "ﬀ": 2765,
      "ﬁ": 2766,
      "ﬂ": 2767,
      "ﬃ": 2768,
      "ﬄ": 2769,
      "ﭧ": 2770,
      "ﭩ": 2771,
      "ﭼ": 2772,
      "ﮉ": 2773,
      "ﮍ": 2774,
      "ﮐ": 2775,
      "ﮑ": 2776,
      "ﮦ": 2777,
      "ﮨ": 2778,
      "ﮫ": 2779,
      "ﮯ": 2780,
      "ﯼ": 2781,
      "ﯽ": 2782,
      "ﯾ": 2783,
      "ﯿ": 2784,
      "ﰐ": 2785,
      "ﰲ": 2786,
      "ﱂ": 2787,
      "ﱃ": 2788,
      "ﱄ": 2789,
      "ﱐ": 2790,
      "ﱘ": 2791,
      "ﱠ": 2792,
      "ﱢ": 2793,
      "ﱪ": 2794,
      "ﱯ": 2795,
      "ﱰ": 2796,
      "ﱴ": 2797,
      "ﱵ": 2798,
      "ﲎ": 2799,
      "ﲑ": 2800,
      "ﲔ": 2801,
      "ﲜ": 2802,
      "ﲞ": 2803,
      "ﲟ": 2804,
      "ﲡ": 2805,
      "ﲢ": 2806,
      "ﲣ": 2807,
      "ﲤ": 2808,
      "ﲨ": 2809,
      "ﲬ": 2810,
      "ﲰ": 2811,
      "ﳉ": 2812,
      "ﳊ": 2813,
      "ﳋ": 2814,
      "ﳌ": 2815,
      "ﳍ": 2816,
      "ﳎ": 2817,
      "ﳏ": 2818,
      "ﳐ": 2819,
      "ﳑ": 2820,
      "ﳒ": 2821,
      "ﳓ": 2822,
      "ﳔ": 2823,
      "ﳕ": 2824,
      "ﳘ": 2825,
      "ﳚ": 2826,
      "ﳝ": 2827,
      "ﶈ": 2828,
      "﷓": 2829,
      "ﹰ": 2830,
      "ﹶ": 2831,
      "ﹸ": 2832,
      "ﹼ": 2833,
      "ﺀ": 2834,
      "ﺁ": 2835,
      "ﺂ": 2836,
      "ﺃ": 2837,
      "ﺄ": 2838,
      "ﺅ": 2839,
      "ﺆ": 2840,
      "ﺇ": 2841,
      "ﺈ": 2842,
      "ﺉ": 2843,
      "ﺊ": 2844,
      "ﺋ": 2845,
      "ﺌ": 2846,
      "ﺍ": 2847,
      "ﺎ": 2848,
      "ﺏ": 2849,
      "ﺐ": 2850,
      "ﺑ": 2851,
      "ﺒ": 2852,
      "ﺓ": 2853,
      "ﺔ": 2854,
      "ﺕ": 2855,
      "ﺖ": 2856,
      "ﺗ": 2857,
      "ﺘ": 2858,
      "ﺙ": 2859,
      "ﺚ": 2860,
      "ﺛ": 2861,
      "ﺜ": 2862,
      "ﺝ": 2863,
      "ﺞ": 2864,
      "ﺟ": 2865,
      "ﺠ": 2866,
      "ﺡ": 2867,
      "ﺢ": 2868,
      "ﺣ": 2869,
      "ﺤ": 2870,
      "ﺦ": 2871,
      "ﺧ": 2872,
      "ﺨ": 2873,
      "ﺩ": 2874,
      "ﺪ": 2875,
      "ﺫ": 2876,
      "ﺬ": 2877,
      "ﺭ": 2878,
      "ﺮ": 2879,
      "ﺯ": 2880,
      "ﺰ": 2881,
      "ﺱ": 2882,
      "ﺲ": 2883,
      "ﺳ": 2884,
      "ﺴ": 2885,
      "ﺵ": 2886,
      "ﺶ": 2887,
      "ﺷ": 2888,
      "ﺸ": 2889,
      "ﺹ": 2890,
      "ﺺ": 2891,
      "ﺻ": 2892,
      "ﺼ": 2893,
      "ﺽ": 2894,
      "ﺾ": 2895,
      "ﺿ": 2896,
      "ﻀ": 2897,
      "ﻁ": 2898,
      "ﻂ": 2899,
      "ﻃ": 2900,
      "ﻄ": 2901,
      "ﻅ": 2902,
      "ﻆ": 2903,
      "ﻇ": 2904,
      "ﻈ": 2905,
      "ﻉ": 2906,
      "ﻊ": 2907,
      "ﻋ": 2908,
      "ﻌ": 2909,
      "ﻍ": 2910,
      "ﻎ": 2911,
      "ﻏ": 2912,
      "ﻐ": 2913,
      "ﻑ": 2914,
      "ﻒ": 2915,
      "ﻓ": 2916,
      "ﻔ": 2917,
      "ﻕ": 2918,
      "ﻖ": 2919,
      "ﻗ": 2920,
      "ﻘ": 2921,
      "ﻙ": 2922,
      "ﻚ": 2923,
      "ﻛ": 2924,
      "ﻜ": 2925,
      "ﻝ": 2926,
      "ﻞ": 2927,
      "ﻟ": 2928,
      "ﻠ": 2929,
      "ﻡ": 2930,
      "ﻢ": 2931,
      "ﻣ": 2932,
      "ﻤ": 2933,
      "ﻥ": 2934,
      "ﻦ": 2935,
      "ﻧ": 2936,
      "ﻨ": 2937,
      "ﻩ": 2938,
      "ﻪ": 2939,
      "ﻫ": 2940,
      "ﻬ": 2941,
      "ﻭ": 2942,
      "ﻮ": 2943,
      "ﻯ": 2944,
      "ﻰ": 2945,
      "ﻱ": 2946,
      "ﻲ": 2947,
      "ﻳ": 2948,
      "ﻴ": 2949,
      "ﻵ": 2950,
      "ﻶ": 2951,
      "ﻷ": 2952,
      "ﻸ": 2953,
      "ﻹ": 2954,
      "ﻺ": 2955,
      "ﻻ": 2956,
      "ﻼ": 2957,
      "（": 2958,
      "）": 2959,
      "，": 2960,
      "－": 2961,
      "０": 2962,
      "１": 2963,
      "２": 2964,
      "４": 2965,
      "６": 2966,
      "：": 2967,
      "；": 2968,
      "？": 2969,
      "［": 2970,
      "～": 2971,
      "ｷ": 2972,
      "ﾔ": 2973,
      "ﾩ": 2974,
      "￼": 2975,
      "�": 2976,
      "es": 2977,
      "on": 2978,
      "en": 2979,
      "ti": 2980,
      "an": 2981,
      "in": 2982,
      "er": 2983,
      "th": 2984,
      "re": 2985,
      "de": 2986,
      "tion": 2987,
      "or": 2988,
      "le": 2989,
      "is": 2990,
      "ent": 2991,
      "ou": 2992,
      "the": 2993,
      "al": 2994,
      "ar": 2995,
      "it": 2996,
      "la": 2997,
      "pr": 2998,
      "qu": 2999,
      "te": 3000,
      "et": 3001,
      "ation": 3002,
      "of": 3003,
      "om": 3004,
      "ic": 3005,
      "ur": 3006,
      "ment": 3007,
      "tr": 3008,
      "un": 3009,
      "and": 3010,
      "les": 3011,
      "as": 3012,
      "au": 3013,
      "at": 3014,
      "ce": 3015,
      "des": 3016,
      "se": 3017,
      "to": 3018,
      "con": 3019,
      "il": 3020,
      "ch": 3021,
      "pro": 3022,
      "du": 3023,
      "ve": 3024,
      "si": 3025,
      "ac": 3026,
      "ad": 3027,
      "com": 3028,
      "ing": 3029,
      "for": 3030,
      "par": 3031,
      "our": 3032,
      "ant": 3033,
      "me": 3034,
      "ne": 3035,
      "ir": 3036,
      "li": 3037,
      "su": 3038,
      "que": 3039,
      "lo": 3040,
      "ta": 3041,
      "di": 3042,
      "ra": 3043,
      "ci": 3044,
      "ter": 3045,
      "po": 3046,
      "00": 3047,
      "pe": 3048,
      "ag": 3049,
      "ans": 3050,
      "res": 3051,
      "ed": 3052,
      "st": 3053,
      "dé": 3054,
      "ex": 3055,
      "ré": 3056,
      "ver": 3057,
      "can": 3058,
      "ap": 3059,
      "ces": 3060,
      "por": 3061,
      "per": 3062,
      "ma": 3063,
      "és": 3064,
      "co": 3065,
      "us": 3066,
      "be": 3067,
      "ie": 3068,
      "pl": 3069,
      "no": 3070,
      "canad": 3071,
      "im": 3072,
      "200": 3073,
      "ab": 3074,
      "comm": 3075,
      "sur": 3076,
      "ont": 3077,
      "est": 3078,
      "pour": 3079,
      "ct": 3080,
      "am": 3081,
      "une": 3082,
      "ér": 3083,
      "aux": 3084,
      "mo": 3085,
      "ser": 3086,
      "so": 3087,
      "ate": 3088,
      "ig": 3089,
      "av": 3090,
      "port": 3091,
      "el": 3092,
      "ction": 3093,
      "dans": 3094,
      "ff": 3095,
      "tre": 3096,
      "ations": 3097,
      "cu": 3098,
      "min": 3099,
      "qui": 3100,
      "ly": 3101,
      "sion": 3102,
      "ai": 3103,
      "ro": 3104,
      "tin": 3105,
      "pu": 3106,
      "tu": 3107,
      "that": 3108,
      "form": 3109,
      "ion": 3110,
      "ité": 3111,
      "lu": 3112,
      "mb": 3113,
      "vi": 3114,
      "té": 3115,
      "ments": 3116,
      "are": 3117,
      "wi": 3118,
      "canada": 3119,
      "ers": 3120,
      "wh": 3121,
      "tions": 3122,
      "fic": 3123,
      "ques": 3124,
      "ance": 3125,
      "ten": 3126,
      "fr": 3127,
      "ity": 3128,
      "ins": 3129,
      "with": 3130,
      "19": 3131,
      "ts": 3132,
      "do": 3133,
      "age": 3134,
      "man": 3135,
      "bu": 3136,
      "inter": 3137,
      "ous": 3138,
      "ge": 3139,
      "op": 3140,
      "mp": 3141,
      "serv": 3142,
      "ence": 3143,
      "der": 3144,
      "tive": 3145,
      "mes": 3146,
      "ted": 3147,
      "gra": 3148,
      "ther": 3149,
      "end": 3150,
      "dis": 3151,
      "str": 3152,
      "urs": 3153,
      "fin": 3154,
      "né": 3155,
      "by": 3156,
      "vo": 3157,
      "bl": 3158,
      "ave": 3159,
      "gr": 3160,
      "ting": 3161,
      "__": 3162,
      "ph": 3163,
      "son": 3164,
      "gu": 3165,
      "lement": 3166,
      "parti": 3167,
      "oun": 3168,
      "ay": 3169,
      "comp": 3170,
      "mar": 3171,
      "sh": 3172,
      "nation": 3173,
      "its": 3174,
      "ri": 3175,
      "ill": 3176,
      "tic": 3177,
      "fi": 3178,
      "ait": 3179,
      "ob": 3180,
      "tiv": 3181,
      "air": 3182,
      "ul": 3183,
      "servic": 3184,
      "cer": 3185,
      "ses": 3186,
      "ée": 3187,
      "ble": 3188,
      "ld": 3189,
      "ven": 3190,
      "all": 3191,
      "fo": 3192,
      "vis": 3193,
      "out": 3194,
      "che": 3195,
      "ies": 3196,
      "ain": 3197,
      "pas": 3198,
      "je": 3199,
      "ère": 3200,
      "he": 3201,
      "ni": 3202,
      "gram": 3203,
      "ure": 3204,
      "id": 3205,
      "ale": 3206,
      "canadi": 3207,
      "inc": 3208,
      "program": 3209,
      "go": 3210,
      "lle": 3211,
      "pré": 3212,
      "minis": 3213,
      "mis": 3214,
      "ard": 3215,
      "produ": 3216,
      "pos": 3217,
      "we": 3218,
      "pre": 3219,
      "aire": 3220,
      "this": 3221,
      "contr": 3222,
      "emp": 3223,
      "iti": 3224,
      "act": 3225,
      "cor": 3226,
      "ants": 3227,
      "pon": 3228,
      "wor": 3229,
      "commun": 3230,
      "eur": 3231,
      "entre": 3232,
      "formation": 3233,
      "national": 3234,
      "pri": 3235,
      "plus": 3236,
      "val": 3237,
      "ine": 3238,
      "io": 3239,
      "ées": 3240,
      "ite": 3241,
      "199": 3242,
      "soci": 3243,
      "velo": 3244,
      "ear": 3245,
      "not": 3246,
      "enti": 3247,
      "able": 3248,
      "ég": 3249,
      "from": 3250,
      "part": 3251,
      "lar": 3252,
      "mon": 3253,
      "sont": 3254,
      "été": 3255,
      "sy": 3256,
      "dire": 3257,
      "cour": 3258,
      "nu": 3259,
      "sa": 3260,
      "eff": 3261,
      "org": 3262,
      "pres": 3263,
      "sta": 3264,
      "trans": 3265,
      "velop": 3266,
      "cr": 3267,
      "lis": 3268,
      "ere": 3269,
      "person": 3270,
      "ich": 3271,
      "publ": 3272,
      "fe": 3273,
      "ens": 3274,
      "ls": 3275,
      "ures": 3276,
      "cip": 3277,
      "was": 3278,
      "services": 3279,
      "don": 3280,
      "ux": 3281,
      "sub": 3282,
      "vent": 3283,
      "organ": 3284,
      "ire": 3285,
      "int": 3286,
      "information": 3287,
      "ke": 3288,
      "work": 3289,
      "titu": 3290,
      "ren": 3291,
      "mé": 3292,
      "ors": 3293,
      "nement": 3294,
      "bo": 3295,
      "cess": 3296,
      "ue": 3297,
      "ary": 3298,
      "public": 3299,
      "éta": 3300,
      "reg": 3301,
      "aires": 3302,
      "ités": 3303,
      "ique": 3304,
      "rela": 3305,
      "coun": 3306,
      "ase": 3307,
      "tes": 3308,
      "log": 3309,
      "prés": 3310,
      "pla": 3311,
      "ould": 3312,
      "ès": 3313,
      "ges": 3314,
      "cent": 3315,
      "emplo": 3316,
      "igh": 3317,
      "lic": 3318,
      "nes": 3319,
      "fer": 3320,
      "cur": 3321,
      "ds": 3322,
      "ho": 3323,
      "tif": 3324,
      "cial": 3325,
      "one": 3326,
      "____": 3327,
      "10": 3328,
      "dic": 3329,
      "ents": 3330,
      "lt": 3331,
      "ding": 3332,
      "ats": 3333,
      "cons": 3334,
      "vir": 3335,
      "chan": 3336,
      "bil": 3337,
      "will": 3338,
      "ded": 3339,
      "memb": 3340,
      "posi": 3341,
      "tres": 3342,
      "cet": 3343,
      "use": 3344,
      "cis": 3345,
      "lon": 3346,
      "mi": 3347,
      "ines": 3348,
      "br": 3349,
      "sup": 3350,
      "jet": 3351,
      "gh": 3352,
      "avec": 3353,
      "car": 3354,
      "ouver": 3355,
      "présent": 3356,
      "sp": 3357,
      "non": 3358,
      "tor": 3359,
      "have": 3360,
      "gé": 3361,
      "low": 3362,
      "peu": 3363,
      "which": 3364,
      "other": 3365,
      "bre": 3366,
      "fon": 3367,
      "spe": 3368,
      "être": 3369,
      "tra": 3370,
      "pris": 3371,
      "ét": 3372,
      "gen": 3373,
      "pay": 3374,
      "lation": 3375,
      "envir": 3376,
      "environ": 3377,
      "plic": 3378,
      "commis": 3379,
      "ach": 3380,
      "met": 3381,
      "fa": 3382,
      "ty": 3383,
      "sou": 3384,
      "has": 3385,
      "tri": 3386,
      "ouve": 3387,
      "elle": 3388,
      "mil": 3389,
      "rap": 3390,
      "ated": 3391,
      "tis": 3392,
      "ari": 3393,
      "nor": 3394,
      "alth": 3395,
      "respon": 3396,
      "offic": 3397,
      "ille": 3398,
      "ient": 3399,
      "grou": 3400,
      "cas": 3401,
      "tives": 3402,
      "ip": 3403,
      "appro": 3404,
      "oc": 3405,
      "vers": 3406,
      "artic": 3407,
      "ons": 3408,
      "iz": 3409,
      "tique": 3410,
      "bi": 3411,
      "nom": 3412,
      "import": 3413,
      "diff": 3414,
      "cla": 3415,
      "commission": 3416,
      "under": 3417,
      "ju": 3418,
      "ms": 3419,
      "employ": 3420,
      "rég": 3421,
      "ish": 3422,
      "ves": 3423,
      "tech": 3424,
      "valu": 3425,
      "new": 3426,
      "sant": 3427,
      "cte": 3428,
      "plan": 3429,
      "uti": 3430,
      "ste": 3431,
      "sig": 3432,
      "cep": 3433,
      "vie": 3434,
      "na": 3435,
      "12": 3436,
      "ates": 3437,
      "cal": 3438,
      "develop": 3439,
      "provi": 3440,
      "lé": 3441,
      "sé": 3442,
      "ca": 3443,
      "their": 3444,
      "trav": 3445,
      "ll": 3446,
      "applic": 3447,
      "autres": 3448,
      "cy": 3449,
      "cher": 3450,
      "ture": 3451,
      "inclu": 3452,
      "cette": 3453,
      "cre": 3454,
      "um": 3455,
      "health": 3456,
      "dro": 3457,
      "lles": 3458,
      "exp": 3459,
      "organis": 3460,
      "euro": 3461,
      "ctive": 3462,
      "ities": 3463,
      "lan": 3464,
      "gover": 3465,
      "fication": 3466,
      "conom": 3467,
      "20": 3468,
      "ils": 3469,
      "ions": 3470,
      "aff": 3471,
      "cap": 3472,
      "cri": 3473,
      "bas": 3474,
      "cé": 3475,
      "eral": 3476,
      "concer": 3477,
      "cts": 3478,
      "indi": 3479,
      "article": 3480,
      "ères": 3481,
      "bor": 3482,
      "lig": 3483,
      "ales": 3484,
      "canadian": 3485,
      "imp": 3486,
      "international": 3487,
      "ree": 3488,
      "pa": 3489,
      "nouve": 3490,
      "service": 3491,
      "tiques": 3492,
      "ist": 3493,
      "mber": 3494,
      "govern": 3495,
      "11": 3496,
      "hu": 3497,
      "ol": 3498,
      "leur": 3499,
      "ress": 3500,
      "tro": 3501,
      "prin": 3502,
      "year": 3503,
      "finan": 3504,
      "ources": 3505,
      "exam": 3506,
      "activ": 3507,
      "eng": 3508,
      "were": 3509,
      "indu": 3510,
      "effe": 3511,
      "ww": 3512,
      "érie": 3513,
      "utilis": 3514,
      "ences": 3515,
      "tho": 3516,
      "mu": 3517,
      "ner": 3518,
      "if": 3519,
      "13": 3520,
      "docu": 3521,
      "trava": 3522,
      "fac": 3523,
      "enne": 3524,
      "more": 3525,
      "qual": 3526,
      "nées": 3527,
      "poli": 3528,
      "ris": 3529,
      "eu": 3530,
      "ber": 3531,
      "main": 3532,
      "europe": 3533,
      "ough": 3534,
      "ical": 3535,
      "gouver": 3536,
      "santé": 3537,
      "industr": 3538,
      "ese": 3539,
      "iv": 3540,
      "may": 3541,
      "15": 3542,
      "sult": 3543,
      "comme": 3544,
      "ial": 3545,
      "conse": 3546,
      "polic": 3547,
      "termin": 3548,
      "bli": 3549,
      "any": 3550,
      "ome": 3551,
      "sions": 3552,
      "red": 3553,
      "men": 3554,
      "tain": 3555,
      "tout": 3556,
      "fir": 3557,
      "2006": 3558,
      "vin": 3559,
      "particip": 3560,
      "char": 3561,
      "abil": 3562,
      "also": 3563,
      "prof": 3564,
      "2005": 3565,
      "oper": 3566,
      "tru": 3567,
      "programme": 3568,
      "rapport": 3569,
      "jour": 3570,
      "dur": 3571,
      "sed": 3572,
      "been": 3573,
      "there": 3574,
      "prote": 3575,
      "consi": 3576,
      "institu": 3577,
      "ssi": 3578,
      "these": 3579,
      "ia": 3580,
      "ème": 3581,
      "fait": 3582,
      "iques": 3583,
      "tal": 3584,
      "ss": 3585,
      "but": 3586,
      "section": 3587,
      "group": 3588,
      "position": 3589,
      "ved": 3590,
      "mat": 3591,
      "od": 3592,
      "ires": 3593,
      "led": 3594,
      "king": 3595,
      "dent": 3596,
      "projet": 3597,
      "ties": 3598,
      "ang": 3599,
      "mer": 3600,
      "iss": 3601,
      "cré": 3602,
      "mit": 3603,
      "agement": 3604,
      "initi": 3605,
      "fun": 3606,
      "000": 3607,
      "ative": 3608,
      "adminis": 3609,
      "accor": 3610,
      "provin": 3611,
      "2004": 3612,
      "bles": 3613,
      "mand": 3614,
      "wn": 3615,
      "ks": 3616,
      "development": 3617,
      "government": 3618,
      "dom": 3619,
      "aut": 3620,
      "pen": 3621,
      "four": 3622,
      "personne": 3623,
      "appe": 3624,
      "ef": 3625,
      "sit": 3626,
      "nous": 3627,
      "view": 3628,
      "particu": 3629,
      "march": 3630,
      "over": 3631,
      "dev": 3632,
      "18": 3633,
      "action": 3634,
      "14": 3635,
      "isse": 3636,
      "jus": 3637,
      "2007": 3638,
      "ice": 3639,
      "time": 3640,
      "ances": 3641,
      "sus": 3642,
      "syste": 3643,
      "vision": 3644,
      "change": 3645,
      "30": 3646,
      "ide": 3647,
      "ages": 3648,
      "contri": 3649,
      "uni": 3650,
      "they": 3651,
      "up": 3652,
      "net": 3653,
      "resear": 3654,
      "ii": 3655,
      "contribu": 3656,
      "labor": 3657,
      "nat": 3658,
      "cro": 3659,
      "land": 3660,
      "jo": 3661,
      "tou": 3662,
      "ctor": 3663,
      "regu": 3664,
      "recher": 3665,
      "princip": 3666,
      "ass": 3667,
      "ound": 3668,
      "tifs": 3669,
      "research": 3670,
      "deux": 3671,
      "loi": 3672,
      "stru": 3673,
      "clu": 3674,
      "près": 3675,
      "gestion": 3676,
      "date": 3677,
      "duc": 3678,
      "report": 3679,
      "cho": 3680,
      "pend": 3681,
      "vention": 3682,
      "contin": 3683,
      "évalu": 3684,
      "cours": 3685,
      "requi": 3686,
      "place": 3687,
      "èg": 3688,
      "ense": 3689,
      "16": 3690,
      "bet": 3691,
      "commit": 3692,
      "gouvernement": 3693,
      "pays": 3694,
      "lin": 3695,
      "obje": 3696,
      "sible": 3697,
      "ally": 3698,
      "éri": 3699,
      "leg": 3700,
      "proje": 3701,
      "such": 3702,
      "rais": 3703,
      "than": 3704,
      "règ": 3705,
      "inte": 3706,
      "alis": 3707,
      "techno": 3708,
      "2003": 3709,
      "ess": 3710,
      "peut": 3711,
      "ign": 3712,
      "acti": 3713,
      "technolog": 3714,
      "________": 3715,
      "aly": 3716,
      "dévelop": 3717,
      "colle": 3718,
      "ets": 3719,
      "cision": 3720,
      "ric": 3721,
      "associ": 3722,
      "fé": 3723,
      "25": 3724,
      "éle": 3725,
      "you": 3726,
      "premi": 3727,
      "should": 3728,
      "his": 3729,
      "communic": 3730,
      "syst": 3731,
      "fore": 3732,
      "ord": 3733,
      "dition": 3734,
      "issu": 3735,
      "pement": 3736,
      "table": 3737,
      "sous": 3738,
      "bec": 3739,
      "prom": 3740,
      "col": 3741,
      "concern": 3742,
      "anti": 3743,
      "cad": 3744,
      "agra": 3745,
      "ctions": 3746,
      "who": 3747,
      "mais": 3748,
      "nombre": 3749,
      "nements": 3750,
      "respe": 3751,
      "voir": 3752,
      "ban": 3753,
      "commer": 3754,
      "identi": 3755,
      "ante": 3756,
      "mê": 3757,
      "agraph": 3758,
      "cus": 3759,
      "paragraph": 3760,
      "étu": 3761,
      "speci": 3762,
      "trait": 3763,
      "stand": 3764,
      "travail": 3765,
      "ton": 3766,
      "als": 3767,
      "protection": 3768,
      "avant": 3769,
      "2002": 3770,
      "ali": 3771,
      "fu": 3772,
      "ainsi": 3773,
      "management": 3774,
      "publi": 3775,
      "pi": 3776,
      "ru": 3777,
      "milli": 3778,
      "ctr": 3779,
      "dit": 3780,
      "application": 3781,
      "minist": 3782,
      "17": 3783,
      "alement": 3784,
      "mark": 3785,
      "opé": 3786,
      "present": 3787,
      "environment": 3788,
      "conseil": 3789,
      "app": 3790,
      "point": 3791,
      "total": 3792,
      "rit": 3793,
      "recherche": 3794,
      "cteur": 3795,
      "would": 3796,
      "fol": 3797,
      "wo": 3798,
      "righ": 3799,
      "avo": 3800,
      "analy": 3801,
      "lations": 3802,
      "ple": 3803,
      "site": 3804,
      "vé": 3805,
      "nex": 3806,
      "cted": 3807,
      "sci": 3808,
      "aient": 3809,
      "leurs": 3810,
      "popu": 3811,
      "sure": 3812,
      "cou": 3813,
      "vre": 3814,
      "née": 3815,
      "regis": 3816,
      "lors": 3817,
      "dg": 3818,
      "vous": 3819,
      "recomm": 3820,
      "thr": 3821,
      "af": 3822,
      "mise": 3823,
      "elles": 3824,
      "sibil": 3825,
      "wel": 3826,
      "countr": 3827,
      "ger": 3828,
      "stu": 3829,
      "atég": 3830,
      "reas": 3831,
      "depart": 3832,
      "cul": 3833,
      "faire": 3834,
      "ile": 3835,
      "teurs": 3836,
      "prior": 3837,
      "tax": 3838,
      "développement": 3839,
      "ais": 3840,
      "ele": 3841,
      "follow": 3842,
      "support": 3843,
      "document": 3844,
      "loc": 3845,
      "first": 3846,
      "pur": 3847,
      "ency": 3848,
      "resul": 3849,
      "bus": 3850,
      "ful": 3851,
      "ot": 3852,
      "high": 3853,
      "cli": 3854,
      "2001": 3855,
      "198": 3856,
      "50": 3857,
      "vol": 3858,
      "même": 3859,
      "general": 3860,
      "ural": 3861,
      "requ": 3862,
      "orig": 3863,
      "mati": 3864,
      "mande": 3865,
      "auth": 3866,
      "gi": 3867,
      "ater": 3868,
      "entrepris": 3869,
      "where": 3870,
      "through": 3871,
      "rent": 3872,
      "now": 3873,
      "ps": 3874,
      "tous": 3875,
      "ario": 3876,
      "day": 3877,
      "way": 3878,
      "certa": 3879,
      "suiv": 3880,
      "cont": 3881,
      "demande": 3882,
      "europé": 3883,
      "gén": 3884,
      "ween": 3885,
      "transport": 3886,
      "objec": 3887,
      "membres": 3888,
      "fonction": 3889,
      "some": 3890,
      "cadre": 3891,
      "leve": 3892,
      "between": 3893,
      "ateg": 3894,
      "ory": 3895,
      "ht": 3896,
      "cle": 3897,
      "24": 3898,
      "2000": 3899,
      "very": 3900,
      "activités": 3901,
      "canadien": 3902,
      "ards": 3903,
      "econom": 3904,
      "données": 3905,
      "policy": 3906,
      "number": 3907,
      "langu": 3908,
      "avoir": 3909,
      "économ": 3910,
      "ong": 3911,
      "assur": 3912,
      "produits": 3913,
      "bien": 3914,
      "situ": 3915,
      "environnement": 3916,
      "fourn": 3917,
      "important": 3918,
      "clar": 3919,
      "dat": 3920,
      "ition": 3921,
      "mal": 3922,
      "tex": 3923,
      "european": 3924,
      "ables": 3925,
      "dy": 3926,
      "ating": 3927,
      "ned": 3928,
      "hip": 3929,
      "dér": 3930,
      "indic": 3931,
      "office": 3932,
      "ack": 3933,
      "modi": 3934,
      "vari": 3935,
      "had": 3936,
      "ning": 3937,
      "ben": 3938,
      "qué": 3939,
      "établ": 3940,
      "into": 3941,
      "author": 3942,
      "tribu": 3943,
      "ced": 3944,
      "exper": 3945,
      "éli": 3946,
      "ck": 3947,
      "hel": 3948,
      "seig": 3949,
      "comple": 3950,
      "programmes": 3951,
      "effic": 3952,
      "plu": 3953,
      "partie": 3954,
      "organiz": 3955,
      "renseig": 3956,
      "ital": 3957,
      "committe": 3958,
      "community": 3959,
      "crip": 3960,
      "permet": 3961,
      "fied": 3962,
      "proces": 3963,
      "ontario": 3964,
      "temp": 3965,
      "union": 3966,
      "demand": 3967,
      "22": 3968,
      "da": 3969,
      "fact": 3970,
      "administr": 3971,
      "centre": 3972,
      "question": 3973,
      "prend": 3974,
      "need": 3975,
      "teur": 3976,
      "ditions": 3977,
      "adop": 3978,
      "génér": 3979,
      "mr": 3980,
      "ise": 3981,
      "cil": 3982,
      "system": 3983,
      "her": 3984,
      "tabl": 3985,
      "agree": 3986,
      "autre": 3987,
      "résult": 3988,
      "mission": 3989,
      "afin": 3990,
      "long": 3991,
      "state": 3992,
      "cture": 3993,
      "www": 3994,
      "23": 3995,
      "production": 3996,
      "crit": 3997,
      "consu": 3998,
      "univers": 3999,
      "doit": 4000,
      "fed": 4001,
      "fam": 4002,
      "ild": 4003,
      "également": 4004,
      "toute": 4005,
      "après": 4006,
      "rece": 4007,
      "rait": 4008,
      "only": 4009,
      "hy": 4010,
      "mont": 4011,
      "ety": 4012,
      "sen": 4013,
      "actu": 4014,
      "opér": 4015,
      "personnes": 4016,
      "sc": 4017,
      "territ": 4018,
      "bes": 4019,
      "forme": 4020,
      "mul": 4021,
      "well": 4022,
      "force": 4023,
      "inves": 4024,
      "come": 4025,
      "constitu": 4026,
      "profes": 4027,
      "off": 4028,
      "states": 4029,
      "conditions": 4030,
      "isation": 4031,
      "ination": 4032,
      "reven": 4033,
      "ctu": 4034,
      "ducation": 4035,
      "when": 4036,
      "questions": 4037,
      "tur": 4038,
      "ément": 4039,
      "process": 4040,
      "dont": 4041,
      "about": 4042,
      "must": 4043,
      "01": 4044,
      "nive": 4045,
      "évaluation": 4046,
      "annu": 4047,
      "renseignements": 4048,
      "lution": 4049,
      "aussi": 4050,
      "région": 4051,
      "atives": 4052,
      "pér": 4053,
      "mbre": 4054,
      "autor": 4055,
      "two": 4056,
      "asses": 4057,
      "moy": 4058,
      "department": 4059,
      "matière": 4060,
      "ues": 4061,
      "committee": 4062,
      "exemp": 4063,
      "ters": 4064,
      "appli": 4065,
      "spé": 4066,
      "inal": 4067,
      "nal": 4068,
      "busines": 4069,
      "nature": 4070,
      "2008": 4071,
      "esti": 4072,
      "shall": 4073,
      "meas": 4074,
      "rele": 4075,
      "représent": 4076,
      "inv": 4077,
      "ches": 4078,
      "tenir": 4079,
      "fois": 4080,
      "vidu": 4081,
      "individu": 4082,
      "gre": 4083,
      "semb": 4084,
      "cau": 4085,
      "moins": 4086,
      "consider": 4087,
      "répon": 4088,
      "council": 4089,
      "graph": 4090,
      "promo": 4091,
      "dence": 4092,
      "member": 4093,
      "duction": 4094,
      "ressources": 4095,
      "human": 4096,
      "conna": 4097,
      "26": 4098,
      "region": 4099,
      "inté": 4100,
      "40": 4101,
      "gc": 4102,
      "capac": 4103,
      "sécur": 4104,
      "cost": 4105,
      "surve": 4106,
      "strateg": 4107,
      "contre": 4108,
      "social": 4109,
      "conclu": 4110,
      "tent": 4111,
      "cès": 4112,
      "made": 4113,
      "propos": 4114,
      "28": 4115,
      "mor": 4116,
      "peti": 4117,
      "law": 4118,
      "line": 4119,
      "31": 4120,
      "21": 4121,
      "set": 4122,
      "états": 4123,
      "used": 4124,
      "cha": 4125,
      "selon": 4126,
      "stratég": 4127,
      "within": 4128,
      "tablish": 4129,
      "most": 4130,
      "ga": 4131,
      "establish": 4132,
      "lég": 4133,
      "see": 4134,
      "budg": 4135,
      "bal": 4136,
      "mesures": 4137,
      "inf": 4138,
      "eurs": 4139,
      "nationale": 4140,
      "nécess": 4141,
      "antes": 4142,
      "rale": 4143,
      "train": 4144,
      "project": 4145,
      "review": 4146,
      "ran": 4147,
      "limit": 4148,
      "clo": 4149,
      "years": 4150,
      "centr": 4151,
      "soit": 4152,
      "stat": 4153,
      "consult": 4154,
      "droits": 4155,
      "bon": 4156,
      "ôle": 4157,
      "système": 4158,
      "27": 4159,
      "dr": 4160,
      "require": 4161,
      "data": 4162,
      "nov": 4163,
      "profession": 4164,
      "compte": 4165,
      "mun": 4166,
      "èmes": 4167,
      "sep": 4168,
      "gro": 4169,
      "particuli": 4170,
      "those": 4171,
      "jur": 4172,
      "peuvent": 4173,
      "vue": 4174,
      "tp": 4175,
      "provide": 4176,
      "fér": 4177,
      "respect": 4178,
      "including": 4179,
      "sal": 4180,
      "comité": 4181,
      "sécurité": 4182,
      "était": 4183,
      "équ": 4184,
      "1999": 4185,
      "positions": 4186,
      "ivent": 4187,
      "politique": 4188,
      "groupe": 4189,
      "let": 4190,
      "tical": 4191,
      "population": 4192,
      "order": 4193,
      "tari": 4194,
      "har": 4195,
      "améli": 4196,
      "exer": 4197,
      "bure": 4198,
      "règlement": 4199,
      "bio": 4200,
      "respons": 4201,
      "vities": 4202,
      "pou": 4203,
      "04": 4204,
      "ministère": 4205,
      "ited": 4206,
      "ply": 4207,
      "inde": 4208,
      "based": 4209,
      "dre": 4210,
      "os": 4211,
      "activities": 4212,
      "où": 4213,
      "priv": 4214,
      "peop": 4215,
      "gar": 4216,
      "addition": 4217,
      "droit": 4218,
      "accord": 4219,
      "ref": 4220,
      "financi": 4221,
      "justi": 4222,
      "amélior": 4223,
      "ask": 4224,
      "appropri": 4225,
      "publique": 4226,
      "continu": 4227,
      "board": 4228,
      "exis": 4229,
      "ec": 4230,
      "lui": 4231,
      "puis": 4232,
      "mment": 4233,
      "refer": 4234,
      "aine": 4235,
      "federal": 4236,
      "dra": 4237,
      "business": 4238,
      "29": 4239,
      "possible": 4240,
      "géné": 4241,
      "assess": 4242,
      "agric": 4243,
      "pose": 4244,
      "détermin": 4245,
      "arch": 4246,
      "economic": 4247,
      "wa": 4248,
      "dement": 4249,
      "ving": 4250,
      "quel": 4251,
      "following": 4252,
      "parties": 4253,
      "résultats": 4254,
      "each": 4255,
      "secon": 4256,
      "perio": 4257,
      "water": 4258,
      "signi": 4259,
      "bro": 4260,
      "télé": 4261,
      "culture": 4262,
      "différ": 4263,
      "tant": 4264,
      "care": 4265,
      "sive": 4266,
      "impro": 4267,
      "medi": 4268,
      "fur": 4269,
      "vant": 4270,
      "facil": 4271,
      "aila": 4272,
      "tien": 4273,
      "web": 4274,
      "bun": 4275,
      "tric": 4276,
      "maj": 4277,
      "inten": 4278,
      "availa": 4279,
      "rad": 4280,
      "hab": 4281,
      "sans": 4282,
      "instru": 4283,
      "base": 4284,
      "operation": 4285,
      "conform": 4286,
      "sel": 4287,
      "ente": 4288,
      "fran": 4289,
      "after": 4290,
      "industrie": 4291,
      "processus": 4292,
      "état": 4293,
      "cription": 4294,
      "cra": 4295,
      "documents": 4296,
      "inst": 4297,
      "aid": 4298,
      "lead": 4299,
      "cs": 4300,
      "100": 4301,
      "local": 4302,
      "page": 4303,
      "procé": 4304,
      "financial": 4305,
      "jan": 4306,
      "accoun": 4307,
      "communau": 4308,
      "année": 4309,
      "nations": 4310,
      "beso": 4311,
      "exig": 4312,
      "vale": 4313,
      "trois": 4314,
      "pério": 4315,
      "famil": 4316,
      "differ": 4317,
      "level": 4318,
      "ast": 4319,
      "amp": 4320,
      "annex": 4321,
      "ership": 4322,
      "trade": 4323,
      "actions": 4324,
      "resources": 4325,
      "during": 4326,
      "ource": 4327,
      "temps": 4328,
      "add": 4329,
      "case": 4330,
      "minister": 4331,
      "derni": 4332,
      "sin": 4333,
      "pes": 4334,
      "ctiv": 4335,
      "hi": 4336,
      "ry": 4337,
      "relations": 4338,
      "dou": 4339,
      "ace": 4340,
      "niveau": 4341,
      "traite": 4342,
      "tribun": 4343,
      "iter": 4344,
      "people": 4345,
      "60": 4346,
      "mig": 4347,
      "both": 4348,
      "cop": 4349,
      "déclar": 4350,
      "grand": 4351,
      "implement": 4352,
      "subst": 4353,
      "avis": 4354,
      "prim": 4355,
      "quer": 4356,
      "personnel": 4357,
      "agency": 4358,
      "doivent": 4359,
      "concernant": 4360,
      "bar": 4361,
      "assist": 4362,
      "secteur": 4363,
      "administration": 4364,
      "taux": 4365,
      "bureau": 4366,
      "http": 4367,
      "oblig": 4368,
      "05": 4369,
      "effor": 4370,
      "els": 4371,
      "03": 4372,
      "fra": 4373,
      "post": 4374,
      "active": 4375,
      "politiques": 4376,
      "atten": 4377,
      "less": 4378,
      "gment": 4379,
      "major": 4380,
      "ôt": 4381,
      "what": 4382,
      "access": 4383,
      "tour": 4384,
      "rights": 4385,
      "habit": 4386,
      "war": 4387,
      "provided": 4388,
      "pra": 4389,
      "ings": 4390,
      "decision": 4391,
      "perform": 4392,
      "second": 4393,
      "paragraphe": 4394,
      "laboration": 4395,
      "cir": 4396,
      "your": 4397,
      "countries": 4398,
      "faç": 4399,
      "bé": 4400,
      "issement": 4401,
      "explo": 4402,
      "aide": 4403,
      "direct": 4404,
      "related": 4405,
      "increas": 4406,
      "specific": 4407,
      "bri": 4408,
      "glo": 4409,
      "particular": 4410,
      "fédér": 4411,
      "fish": 4412,
      "parten": 4413,
      "canadiens": 4414,
      "cand": 4415,
      "child": 4416,
      "coû": 4417,
      "issues": 4418,
      "benef": 4419,
      "available": 4420,
      "issance": 4421,
      "nent": 4422,
      "many": 4423,
      "them": 4424,
      "ak": 4425,
      "ability": 4426,
      "suc": 4427,
      "tenu": 4428,
      "équi": 4429,
      "constru": 4430,
      "training": 4431,
      "02": 4432,
      "type": 4433,
      "ateurs": 4434,
      "discus": 4435,
      "ints": 4436,
      "finance": 4437,
      "ler": 4438,
      "inform": 4439,
      "gran": 4440,
      "determin": 4441,
      "canadienne": 4442,
      "bour": 4443,
      "communications": 4444,
      "current": 4445,
      "défin": 4446,
      "crim": 4447,
      "candid": 4448,
      "entreprises": 4449,
      "being": 4450,
      "products": 4451,
      "agreement": 4452,
      "ministre": 4453,
      "market": 4454,
      "sk": 4455,
      "décision": 4456,
      "seu": 4457,
      "education": 4458,
      "budget": 4459,
      "howe": 4460,
      "employe": 4461,
      "corpor": 4462,
      "tation": 4463,
      "ici": 4464,
      "found": 4465,
      "period": 4466,
      "relative": 4467,
      "industry": 4468,
      "mér": 4469,
      "œu": 4470,
      "toutes": 4471,
      "chaque": 4472,
      "distribu": 4473,
      "secur": 4474,
      "infr": 4475,
      "guide": 4476,
      "however": 4477,
      "tribunal": 4478,
      "accep": 4479,
      "sement": 4480,
      "organisation": 4481,
      "cteurs": 4482,
      "convention": 4483,
      "amend": 4484,
      "enf": 4485,
      "dents": 4486,
      "lieu": 4487,
      "auto": 4488,
      "uses": 4489,
      "rc": 4490,
      "environmental": 4491,
      "esp": 4492,
      "missions": 4493,
      "signific": 4494,
      "occu": 4495,
      "situation": 4496,
      "laire": 4497,
      "key": 4498,
      "multi": 4499,
      "phy": 4500,
      "médi": 4501,
      "participation": 4502,
      "emploi": 4503,
      "dol": 4504,
      "represent": 4505,
      "façon": 4506,
      "ow": 4507,
      "1998": 4508,
      "know": 4509,
      "général": 4510,
      "bility": 4511,
      "prendre": 4512,
      "septe": 4513,
      "arm": 4514,
      "suite": 4515,
      "migr": 4516,
      "examen": 4517,
      "programs": 4518,
      "cin": 4519,
      "direction": 4520,
      "porte": 4521,
      "06": 4522,
      "auc": 4523,
      "commercial": 4524,
      "utilisation": 4525,
      "posed": 4526,
      "treat": 4527,
      "35": 4528,
      "ze": 4529,
      "tenti": 4530,
      "ier": 4531,
      "ok": 4532,
      "opération": 4533,
      "érieur": 4534,
      "cue": 4535,
      "could": 4536,
      "ft": 4537,
      "communication": 4538,
      "nota": 4539,
      "projets": 4540,
      "sector": 4541,
      "proper": 4542,
      "hom": 4543,
      "fig": 4544,
      "evalu": 4545,
      "original": 4546,
      "accès": 4547,
      "members": 4548,
      "sis": 4549,
      "sum": 4550,
      "fil": 4551,
      "augment": 4552,
      "mesure": 4553,
      "raison": 4554,
      "société": 4555,
      "potenti": 4556,
      "période": 4557,
      "initiative": 4558,
      "otta": 4559,
      "area": 4560,
      "sco": 4561,
      "effective": 4562,
      "certain": 4563,
      "cisions": 4564,
      "dollar": 4565,
      "ottawa": 4566,
      "association": 4567,
      "how": 4568,
      "amen": 4569,
      "partn": 4570,
      "suff": 4571,
      "repor": 4572,
      "results": 4573,
      "mic": 4574,
      "rés": 4575,
      "ensure": 4576,
      "initiatives": 4577,
      "cl": 4578,
      "amoun": 4579,
      "regulations": 4580,
      "ices": 4581,
      "pé": 4582,
      "fem": 4583,
      "dies": 4584,
      "required": 4585,
      "pren": 4586,
      "marché": 4587,
      "ato": 4588,
      "til": 4589,
      "dépen": 4590,
      "institutions": 4591,
      "wom": 4592,
      "ception": 4593,
      "ctron": 4594,
      "sera": 4595,
      "nouveau": 4596,
      "êt": 4597,
      "sujet": 4598,
      "99": 4599,
      "med": 4600,
      "three": 4601,
      "world": 4602,
      "pass": 4603,
      "ight": 4604,
      "mettre": 4605,
      "transfer": 4606,
      "provincial": 4607,
      "hold": 4608,
      "manu": 4609,
      "avait": 4610,
      "entes": 4611,
      "réalis": 4612,
      "quality": 4613,
      "statis": 4614,
      "appu": 4615,
      "ête": 4616,
      "invol": 4617,
      "nove": 4618,
      "further": 4619,
      "mee": 4620,
      "risk": 4621,
      "________________": 4622,
      "élé": 4623,
      "recei": 4624,
      "octo": 4625,
      "lia": 4626,
      "innov": 4627,
      "observ": 4628,
      "practi": 4629,
      "reco": 4630,
      "ick": 4631,
      "voy": 4632,
      "intro": 4633,
      "scienti": 4634,
      "pendant": 4635,
      "noti": 4636,
      "techni": 4637,
      "special": 4638,
      "rée": 4639,
      "meeting": 4640,
      "nel": 4641,
      "certains": 4642,
      "ellement": 4643,
      "food": 4644,
      "fis": 4645,
      "comb": 4646,
      "allow": 4647,
      "examin": 4648,
      "acts": 4649,
      "itation": 4650,
      "sor": 4651,
      "plans": 4652,
      "directive": 4653,
      "own": 4654,
      "éco": 4655,
      "ped": 4656,
      "unes": 4657,
      "33": 4658,
      "tak": 4659,
      "security": 4660,
      "interest": 4661,
      "gue": 4662,
      "cru": 4663,
      "xi": 4664,
      "divers": 4665,
      "areas": 4666,
      "européenne": 4667,
      "férence": 4668,
      "recommand": 4669,
      "fav": 4670,
      "essenti": 4671,
      "prési": 4672,
      "appel": 4673,
      "intér": 4674,
      "trad": 4675,
      "fier": 4676,
      "fie": 4677,
      "raient": 4678,
      "take": 4679,
      "cult": 4680,
      "while": 4681,
      "véri": 4682,
      "nos": 4683,
      "right": 4684,
      "opport": 4685,
      "art": 4686,
      "nels": 4687,
      "tel": 4688,
      "jou": 4689,
      "registr": 4690,
      "agricul": 4691,
      "description": 4692,
      "organismes": 4693,
      "institution": 4694,
      "fonds": 4695,
      "women": 4696,
      "read": 4697,
      "fs": 4698,
      "numér": 4699,
      "assemb": 4700,
      "éten": 4701,
      "mate": 4702,
      "export": 4703,
      "court": 4704,
      "histor": 4705,
      "45": 4706,
      "qualité": 4707,
      "dépenses": 4708,
      "sm": 4709,
      "test": 4710,
      "again": 4711,
      "probl": 4712,
      "07": 4713,
      "opportun": 4714,
      "tele": 4715,
      "ateur": 4716,
      "vertu": 4717,
      "œuvre": 4718,
      "compris": 4719,
      "sieurs": 4720,
      "mater": 4721,
      "années": 4722,
      "abilité": 4723,
      "ward": 4724,
      "large": 4725,
      "sti": 4726,
      "million": 4727,
      "range": 4728,
      "impact": 4729,
      "working": 4730,
      "compar": 4731,
      "jours": 4732,
      "defin": 4733,
      "titre": 4734,
      "1997": 4735,
      "make": 4736,
      "wer": 4737,
      "notamment": 4738,
      "ods": 4739,
      "ensemb": 4740,
      "plusieurs": 4741,
      "milit": 4742,
      "help": 4743,
      "ories": 4744,
      "assurer": 4745,
      "mod": 4746,
      "nouvelle": 4747,
      "dure": 4748,
      "regard": 4749,
      "then": 4750,
      "eau": 4751,
      "dollars": 4752,
      "assessment": 4753,
      "participants": 4754,
      "08": 4755,
      "code": 4756,
      "invest": 4757,
      "illeurs": 4758,
      "uary": 4759,
      "rou": 4760,
      "vil": 4761,
      "employment": 4762,
      "comment": 4763,
      "affe": 4764,
      "olog": 4765,
      "ared": 4766,
      "life": 4767,
      "offer": 4768,
      "fications": 4769,
      "administra": 4770,
      "sto": 4771,
      "lè": 4772,
      "include": 4773,
      "aur": 4774,
      "phone": 4775,
      "québec": 4776,
      "nord": 4777,
      "lection": 4778,
      "parlia": 4779,
      "som": 4780,
      "étr": 4781,
      "visions": 4782,
      "bur": 4783,
      "changes": 4784,
      "montr": 4785,
      "due": 4786,
      "ep": 4787,
      "islation": 4788,
      "clear": 4789,
      "whe": 4790,
      "regional": 4791,
      "measures": 4792,
      "version": 4793,
      "country": 4794,
      "tés": 4795,
      "sw": 4796,
      "quent": 4797,
      "saf": 4798,
      "exemple": 4799,
      "note": 4800,
      "lines": 4801,
      "subje": 4802,
      "appr": 4803,
      "uk": 4804,
      "ut": 4805,
      "chap": 4806,
      "tics": 4807,
      "tern": 4808,
      "ensemble": 4809,
      "prest": 4810,
      "ship": 4811,
      "grow": 4812,
      "ible": 4813,
      "requirements": 4814,
      "performance": 4815,
      "systems": 4816,
      "rate": 4817,
      "95": 4818,
      "before": 4819,
      "recor": 4820,
      "effectu": 4821,
      "chez": 4822,
      "united": 4823,
      "spéci": 4824,
      "surveill": 4825,
      "enqu": 4826,
      "encour": 4827,
      "mode": 4828,
      "consul": 4829,
      "première": 4830,
      "efforts": 4831,
      "autoch": 4832,
      "staff": 4833,
      "75": 4834,
      "ght": 4835,
      "organization": 4836,
      "frame": 4837,
      "home": 4838,
      "propri": 4839,
      "parliament": 4840,
      "eric": 4841,
      "très": 4842,
      "éch": 4843,
      "quelle": 4844,
      "certi": 4845,
      "importance": 4846,
      "anc": 4847,
      "ba": 4848,
      "core": 4849,
      "experi": 4850,
      "millions": 4851,
      "compl": 4852,
      "satis": 4853,
      "valeur": 4854,
      "face": 4855,
      "era": 4856,
      "technology": 4857,
      "approach": 4858,
      "médic": 4859,
      "same": 4860,
      "alber": 4861,
      "acqu": 4862,
      "she": 4863,
      "présente": 4864,
      "métho": 4865,
      "économique": 4866,
      "sol": 4867,
      "exclu": 4868,
      "béné": 4869,
      "1996": 4870,
      "scho": 4871,
      "gy": 4872,
      "unis": 4873,
      "deli": 4874,
      "objectifs": 4875,
      "mention": 4876,
      "capital": 4877,
      "hau": 4878,
      "hon": 4879,
      "projects": 4880,
      "ordin": 4881,
      "ledge": 4882,
      "étaient": 4883,
      "possibil": 4884,
      "director": 4885,
      "femmes": 4886,
      "notre": 4887,
      "safety": 4888,
      "occup": 4889,
      "36": 4890,
      "oris": 4891,
      "nouvelles": 4892,
      "proce": 4893,
      "medic": 4894,
      "ayant": 4895,
      "atte": 4896,
      "division": 4897,
      "dép": 4898,
      "contact": 4899,
      "moyen": 4900,
      "recommend": 4901,
      "votre": 4902,
      "fy": 4903,
      "super": 4904,
      "ized": 4905,
      "control": 4906,
      "emb": 4907,
      "ager": 4908,
      "province": 4909,
      "09": 4910,
      "affaires": 4911,
      "vement": 4912,
      "incre": 4913,
      "back": 4914,
      "expres": 4915,
      "since": 4916,
      "pat": 4917,
      "funding": 4918,
      "vic": 4919,
      "astru": 4920,
      "produit": 4921,
      "étrang": 4922,
      "ause": 4923,
      "joint": 4924,
      "acy": 4925,
      "34": 4926,
      "den": 4927,
      "itor": 4928,
      "ière": 4929,
      "parlement": 4930,
      "sing": 4931,
      "radio": 4932,
      "az": 4933,
      "significant": 4934,
      "equi": 4935,
      "official": 4936,
      "does": 4937,
      "contex": 4938,
      "forces": 4939,
      "va": 4940,
      "ling": 4941,
      "infrastru": 4942,
      "financement": 4943,
      "points": 4944,
      "head": 4945,
      "structure": 4946,
      "diffic": 4947,
      "lorsque": 4948,
      "pan": 4949,
      "mation": 4950,
      "tte": 4951,
      "buil": 4952,
      "necess": 4953,
      "tient": 4954,
      "ises": 4955,
      "depuis": 4956,
      "européen": 4957,
      "design": 4958,
      "études": 4959,
      "groupes": 4960,
      "imum": 4961,
      "réglement": 4962,
      "aines": 4963,
      "rédu": 4964,
      "tenant": 4965,
      "reç": 4966,
      "taire": 4967,
      "acces": 4968,
      "enci": 4969,
      "consom": 4970,
      "38": 4971,
      "pd": 4972,
      "prog": 4973,
      "university": 4974,
      "hic": 4975,
      "rése": 4976,
      "lim": 4977,
      "cc": 4978,
      "construction": 4979,
      "role": 4980,
      "37": 4981,
      "197": 4982,
      "commerce": 4983,
      "étude": 4984,
      "continue": 4985,
      "annexe": 4986,
      "alo": 4987,
      "prév": 4988,
      "écu": 4989,
      "anim": 4990,
      "fix": 4991,
      "effet": 4992,
      "huma": 4993,
      "investi": 4994,
      "ron": 4995,
      "against": 4996,
      "because": 4997,
      "framework": 4998,
      "internet": 4999,
      "expe": 5000,
      "fab": 5001,
      "appropriate": 5002,
      "hand": 5003,
      "value": 5004,
      "tement": 5005,
      "term": 5006,
      "jusqu": 5007,
      "amount": 5008,
      "study": 5009,
      "rier": 5010,
      "iel": 5011,
      "interven": 5012,
      "north": 5013,
      "address": 5014,
      "premier": 5015,
      "tle": 5016,
      "domaine": 5017,
      "contribution": 5018,
      "competi": 5019,
      "investis": 5020,
      "communities": 5021,
      "my": 5022,
      "dispositions": 5023,
      "précis": 5024,
      "aboriginal": 5025,
      "générale": 5026,
      "formu": 5027,
      "assistance": 5028,
      "prix": 5029,
      "sug": 5030,
      "39": 5031,
      "lit": 5032,
      "analyse": 5033,
      "enfants": 5034,
      "ceux": 5035,
      "knowledge": 5036,
      "sites": 5037,
      "traitement": 5038,
      "company": 5039,
      "contract": 5040,
      "tradition": 5041,
      "gation": 5042,
      "activité": 5043,
      "month": 5044,
      "ols": 5045,
      "enter": 5046,
      "devrait": 5047,
      "increase": 5048,
      "laires": 5049,
      "exce": 5050,
      "systèmes": 5051,
      "hav": 5052,
      "grande": 5053,
      "lie": 5054,
      "jeunes": 5055,
      "adap": 5056,
      "common": 5057,
      "tar": 5058,
      "implementation": 5059,
      "canadiennes": 5060,
      "sex": 5061,
      "condu": 5062,
      "issue": 5063,
      "future": 5064,
      "cover": 5065,
      "mus": 5066,
      "justice": 5067,
      "mois": 5068,
      "classi": 5069,
      "source": 5070,
      "sse": 5071,
      "tones": 5072,
      "conserv": 5073,
      "président": 5074,
      "objet": 5075,
      "alberta": 5076,
      "tem": 5077,
      "serve": 5078,
      "sau": 5079,
      "property": 5080,
      "inci": 5081,
      "seront": 5082,
      "ko": 5083,
      "pho": 5084,
      "costs": 5085,
      "subject": 5086,
      "income": 5087,
      "claim": 5088,
      "mc": 5089,
      "besoins": 5090,
      "win": 5091,
      "field": 5092,
      "canadians": 5093,
      "wan": 5094,
      "44": 5095,
      "ouse": 5096,
      "mag": 5097,
      "diver": 5098,
      "entreprise": 5099,
      "égard": 5100,
      "basis": 5101,
      "destin": 5102,
      "get": 5103,
      "ade": 5104,
      "bilité": 5105,
      "different": 5106,
      "promotion": 5107,
      "articles": 5108,
      "nelle": 5109,
      "frais": 5110,
      "ener": 5111,
      "small": 5112,
      "contrôle": 5113,
      "given": 5114,
      "material": 5115,
      "circu": 5116,
      "ites": 5117,
      "influ": 5118,
      "rôle": 5119,
      "metho": 5120,
      "amér": 5121,
      "pap": 5122,
      "clin": 5123,
      "ification": 5124,
      "exerc": 5125,
      "autochtones": 5126,
      "sche": 5127,
      "ieux": 5128,
      "groups": 5129,
      "employés": 5130,
      "real": 5131,
      "onto": 5132,
      "espè": 5133,
      "revenu": 5134,
      "technologies": 5135,
      "quo": 5136,
      "ati": 5137,
      "taken": 5138,
      "ml": 5139,
      "using": 5140,
      "déta": 5141,
      "exécu": 5142,
      "adv": 5143,
      "dispon": 5144,
      "spécial": 5145,
      "ily": 5146,
      "ime": 5147,
      "rapports": 5148,
      "charge": 5149,
      "mondi": 5150,
      "êts": 5151,
      "nationaux": 5152,
      "among": 5153,
      "isla": 5154,
      "surveillance": 5155,
      "needs": 5156,
      "nav": 5157,
      "rug": 5158,
      "nouveaux": 5159,
      "caract": 5160,
      "audit": 5161,
      "whether": 5162,
      "pê": 5163,
      "concentr": 5164,
      "standing": 5165,
      "achie": 5166,
      "48": 5167,
      "certaines": 5168,
      "90": 5169,
      "sources": 5170,
      "considé": 5171,
      "hor": 5172,
      "conformément": 5173,
      "bit": 5174,
      "event": 5175,
      "ître": 5176,
      "ième": 5177,
      "goods": 5178,
      "def": 5179,
      "sever": 5180,
      "legal": 5181,
      "name": 5182,
      "stain": 5183,
      "instal": 5184,
      "cel": 5185,
      "obtenir": 5186,
      "redu": 5187,
      "aliment": 5188,
      "ath": 5189,
      "roy": 5190,
      "licence": 5191,
      "collectiv": 5192,
      "six": 5193,
      "evaluation": 5194,
      "lor": 5195,
      "children": 5196,
      "fais": 5197,
      "soutien": 5198,
      "broad": 5199,
      "cf": 5200,
      "ones": 5201,
      "distribution": 5202,
      "èrement": 5203,
      "deta": 5204,
      "soins": 5205,
      "ely": 5206,
      "étudi": 5207,
      "cause": 5208,
      "ili": 5209,
      "66": 5210,
      "americ": 5211,
      "drug": 5212,
      "sign": 5213,
      "savoir": 5214,
      "consultation": 5215,
      "aspe": 5216,
      "cueil": 5217,
      "inspe": 5218,
      "result": 5219,
      "visant": 5220,
      "déf": 5221,
      "abo": 5222,
      "organisations": 5223,
      "proble": 5224,
      "authority": 5225,
      "intégr": 5226,
      "compéten": 5227,
      "lear": 5228,
      "améliorer": 5229,
      "ators": 5230,
      "prépar": 5231,
      "soli": 5232,
      "proposed": 5233,
      "organizations": 5234,
      "airs": 5235,
      "ox": 5236,
      "pp": 5237,
      "iné": 5238,
      "oth": 5239,
      "mars": 5240,
      "self": 5241,
      "ator": 5242,
      "portion": 5243,
      "network": 5244,
      "risque": 5245,
      "without": 5246,
      "secre": 5247,
      "eness": 5248,
      "max": 5249,
      "recog": 5250,
      "issent": 5251,
      "ligne": 5252,
      "request": 5253,
      "aci": 5254,
      "relatives": 5255,
      "language": 5256,
      "volu": 5257,
      "seulement": 5258,
      "conséqu": 5259,
      "correspon": 5260,
      "top": 5261,
      "judic": 5262,
      "side": 5263,
      "éléments": 5264,
      "conf": 5265,
      "foreign": 5266,
      "vious": 5267,
      "hal": 5268,
      "pouvoir": 5269,
      "eth": 5270,
      "necessary": 5271,
      "orient": 5272,
      "ctives": 5273,
      "alité": 5274,
      "sustain": 5275,
      "mom": 5276,
      "celle": 5277,
      "fai": 5278,
      "1995": 5279,
      "directeur": 5280,
      "anni": 5281,
      "example": 5282,
      "quant": 5283,
      "coûts": 5284,
      "benefits": 5285,
      "iii": 5286,
      "uve": 5287,
      "expéri": 5288,
      "80": 5289,
      "provides": 5290,
      "product": 5291,
      "confi": 5292,
      "iller": 5293,
      "ases": 5294,
      "modè": 5295,
      "standards": 5296,
      "bénéfic": 5297,
      "atlan": 5298,
      "toronto": 5299,
      "analysis": 5300,
      "stre": 5301,
      "solu": 5302,
      "provinces": 5303,
      "ordon": 5304,
      "vidence": 5305,
      "contain": 5306,
      "montant": 5307,
      "bac": 5308,
      "agence": 5309,
      "posé": 5310,
      "cn": 5311,
      "internationale": 5312,
      "building": 5313,
      "terme": 5314,
      "survey": 5315,
      "location": 5316,
      "bank": 5317,
      "paie": 5318,
      "list": 5319,
      "final": 5320,
      "hr": 5321,
      "individual": 5322,
      "vul": 5323,
      "65": 5324,
      "activity": 5325,
      "annual": 5326,
      "malad": 5327,
      "did": 5328,
      "cases": 5329,
      "strategy": 5330,
      "techn": 5331,
      "omb": 5332,
      "encore": 5333,
      "ization": 5334,
      "sask": 5335,
      "32": 5336,
      "67": 5337,
      "étant": 5338,
      "ann": 5339,
      "acro": 5340,
      "donc": 5341,
      "porter": 5342,
      "coup": 5343,
      "ograph": 5344,
      "outre": 5345,
      "efficac": 5346,
      "igu": 5347,
      "47": 5348,
      "limited": 5349,
      "laquelle": 5350,
      "levels": 5351,
      "employees": 5352,
      "afr": 5353,
      "mas": 5354,
      "toutefois": 5355,
      "capacité": 5356,
      "lais": 5357,
      "numéro": 5358,
      "tariat": 5359,
      "icip": 5360,
      "perman": 5361,
      "enh": 5362,
      "infrastructure": 5363,
      "corre": 5364,
      "regula": 5365,
      "exigences": 5366,
      "monitor": 5367,
      "means": 5368,
      "49": 5369,
      "ouv": 5370,
      "attribu": 5371,
      "normes": 5372,
      "municip": 5373,
      "pol": 5374,
      "effets": 5375,
      "autom": 5376,
      "amendment": 5377,
      "rési": 5378,
      "just": 5379,
      "types": 5380,
      "success": 5381,
      "avons": 5382,
      "zone": 5383,
      "june": 5384,
      "turn": 5385,
      "opin": 5386,
      "naires": 5387,
      "cela": 5388,
      "travaux": 5389,
      "manière": 5390,
      "atre": 5391,
      "ness": 5392,
      "ature": 5393,
      "unique": 5394,
      "innovation": 5395,
      "88": 5396,
      "curr": 5397,
      "ics": 5398,
      "solution": 5399,
      "éner": 5400,
      "cit": 5401,
      "making": 5402,
      "sui": 5403,
      "reports": 5404,
      "quanti": 5405,
      "fique": 5406,
      "show": 5407,
      "liste": 5408,
      "global": 5409,
      "down": 5410,
      "juin": 5411,
      "erre": 5412,
      "simp": 5413,
      "energy": 5414,
      "pourrait": 5415,
      "cultural": 5416,
      "responsibil": 5417,
      "established": 5418,
      "bed": 5419,
      "relevant": 5420,
      "collaboration": 5421,
      "55": 5422,
      "hé": 5423,
      "tend": 5424,
      "agriculture": 5425,
      "immigr": 5426,
      "tage": 5427,
      "improve": 5428,
      "ident": 5429,
      "demandes": 5430,
      "oeu": 5431,
      "apply": 5432,
      "increased": 5433,
      "concerne": 5434,
      "regulation": 5435,
      "territo": 5436,
      "registre": 5437,
      "intelle": 5438,
      "condition": 5439,
      "syn": 5440,
      "sais": 5441,
      "considered": 5442,
      "intellectu": 5443,
      "stratégie": 5444,
      "suppl": 5445,
      "ian": 5446,
      "hn": 5447,
      "partnership": 5448,
      "play": 5449,
      "oms": 5450,
      "last": 5451,
      "policies": 5452,
      "cing": 5453,
      "hen": 5454,
      "gie": 5455,
      "dece": 5456,
      "déce": 5457,
      "moment": 5458,
      "difficul": 5459,
      "received": 5460,
      "species": 5461,
      "aver": 5462,
      "equip": 5463,
      "endre": 5464,
      "nécessaire": 5465,
      "ène": 5466,
      "percent": 5467,
      "assurance": 5468,
      "potential": 5469,
      "ix": 5470,
      "yl": 5471,
      "open": 5472,
      "cat": 5473,
      "loy": 5474,
      "tory": 5475,
      "atory": 5476,
      "mail": 5477,
      "provisions": 5478,
      "fabric": 5479,
      "terms": 5480,
      "soient": 5481,
      "encies": 5482,
      "1994": 5483,
      "risques": 5484,
      "clients": 5485,
      "fournir": 5486,
      "fins": 5487,
      "ird": 5488,
      "lorsqu": 5489,
      "minu": 5490,
      "west": 5491,
      "conta": 5492,
      "permis": 5493,
      "previous": 5494,
      "colu": 5495,
      "develo": 5496,
      "lée": 5497,
      "pratiques": 5498,
      "pdf": 5499,
      "beau": 5500,
      "exercice": 5501,
      "proté": 5502,
      "recogni": 5503,
      "micro": 5504,
      "operations": 5505,
      "vac": 5506,
      "apr": 5507,
      "additional": 5508,
      "proto": 5509,
      "hydro": 5510,
      "carri": 5511,
      "mental": 5512,
      "prise": 5513,
      "xic": 5514,
      "like": 5515,
      "compla": 5516,
      "faut": 5517,
      "aw": 5518,
      "try": 5519,
      "manit": 5520,
      "venir": 5521,
      "poste": 5522,
      "sein": 5523,
      "déterminer": 5524,
      "tran": 5525,
      "lier": 5526,
      "corporation": 5527,
      "613": 5528,
      "supp": 5529,
      "growth": 5530,
      "complex": 5531,
      "techniques": 5532,
      "confer": 5533,
      "vier": 5534,
      "minor": 5535,
      "coopération": 5536,
      "rendement": 5537,
      "élabor": 5538,
      "trave": 5539,
      "isme": 5540,
      "établissement": 5541,
      "territor": 5542,
      "particulier": 5543,
      "liv": 5544,
      "audi": 5545,
      "celui": 5546,
      "advis": 5547,
      "focus": 5548,
      "bran": 5549,
      "fédéral": 5550,
      "contributions": 5551,
      "établi": 5552,
      "quebec": 5553,
      "publications": 5554,
      "rer": 5555,
      "manitob": 5556,
      "franç": 5557,
      "ril": 5558,
      "celles": 5559,
      "pil": 5560,
      "règle": 5561,
      "december": 5562,
      "personal": 5563,
      "etc": 5564,
      "dossi": 5565,
      "compli": 5566,
      "nie": 5567,
      "tish": 5568,
      "prises": 5569,
      "ane": 5570,
      "problèmes": 5571,
      "light": 5572,
      "chall": 5573,
      "society": 5574,
      "here": 5575,
      "infe": 5576,
      "photo": 5577,
      "brit": 5578,
      "full": 5579,
      "developed": 5580,
      "compag": 5581,
      "informations": 5582,
      "therefore": 5583,
      "idi": 5584,
      "déclaration": 5585,
      "effect": 5586,
      "experience": 5587,
      "evidence": 5588,
      "endant": 5589,
      "pursu": 5590,
      "sibles": 5591,
      "reference": 5592,
      "dépend": 5593,
      "investment": 5594,
      "atta": 5595,
      "tée": 5596,
      "rom": 5597,
      "ouest": 5598,
      "ders": 5599,
      "décembre": 5600,
      "planning": 5601,
      "call": 5602,
      "donné": 5603,
      "various": 5604,
      "according": 5605,
      "school": 5606,
      "accueil": 5607,
      "dant": 5608,
      "measure": 5609,
      "submit": 5610,
      "cust": 5611,
      "naire": 5612,
      "manitoba": 5613,
      "capacity": 5614,
      "occas": 5615,
      "fax": 5616,
      "électron": 5617,
      "admis": 5618,
      "civil": 5619,
      "good": 5620,
      "discrim": 5621,
      "ways": 5622,
      "central": 5623,
      "aged": 5624,
      "police": 5625,
      "arri": 5626,
      "confir": 5627,
      "class": 5628,
      "trim": 5629,
      "bat": 5630,
      "compan": 5631,
      "85": 5632,
      "natural": 5633,
      "british": 5634,
      "catég": 5635,
      "croissance": 5636,
      "affect": 5637,
      "communi": 5638,
      "élaboration": 5639,
      "46": 5640,
      "subsection": 5641,
      "put": 5642,
      "objectives": 5643,
      "41": 5644,
      "étés": 5645,
      "intérêt": 5646,
      "rus": 5647,
      "family": 5648,
      "nam": 5649,
      "régime": 5650,
      "anci": 5651,
      "aucune": 5652,
      "persons": 5653,
      "sud": 5654,
      "simil": 5655,
      "traité": 5656,
      "reason": 5657,
      "session": 5658,
      "rules": 5659,
      "equipment": 5660,
      "mme": 5661,
      "phase": 5662,
      "avantage": 5663,
      "substances": 5664,
      "account": 5665,
      "thern": 5666,
      "besoin": 5667,
      "pc": 5668,
      "régions": 5669,
      "john": 5670,
      "ours": 5671,
      "response": 5672,
      "cure": 5673,
      "cam": 5674,
      "quali": 5675,
      "nelles": 5676,
      "science": 5677,
      "eter": 5678,
      "legislation": 5679,
      "studies": 5680,
      "san": 5681,
      "rées": 5682,
      "const": 5683,
      "lac": 5684,
      "factur": 5685,
      "road": 5686,
      "amendement": 5687,
      "septembre": 5688,
      "supplément": 5689,
      "ole": 5690,
      "obligations": 5691,
      "principal": 5692,
      "établir": 5693,
      "70": 5694,
      "remp": 5695,
      "réseau": 5696,
      "male": 5697,
      "alors": 5698,
      "times": 5699,
      "érieure": 5700,
      "autoris": 5701,
      "taking": 5702,
      "exist": 5703,
      "technologie": 5704,
      "pati": 5705,
      "quatre": 5706,
      "strategic": 5707,
      "april": 5708,
      "september": 5709,
      "treatment": 5710,
      "even": 5711,
      "bel": 5712,
      "suppor": 5713,
      "agent": 5714,
      "auprès": 5715,
      "ica": 5716,
      "avril": 5717,
      "adres": 5718,
      "aring": 5719,
      "limin": 5720,
      "aider": 5721,
      "référence": 5722,
      "fiques": 5723,
      "mai": 5724,
      "poses": 5725,
      "exploitation": 5726,
      "décisions": 5727,
      "1990": 5728,
      "offr": 5729,
      "recent": 5730,
      "opérations": 5731,
      "struct": 5732,
      "private": 5733,
      "montré": 5734,
      "lat": 5735,
      "consis": 5736,
      "archi": 5737,
      "dise": 5738,
      "thé": 5739,
      "enquête": 5740,
      "conservation": 5741,
      "membre": 5742,
      "quar": 5743,
      "suit": 5744,
      "authorities": 5745,
      "party": 5746,
      "dée": 5747,
      "fund": 5748,
      "ills": 5749,
      "alter": 5750,
      "free": 5751,
      "exten": 5752,
      "dix": 5753,
      "fre": 5754,
      "restric": 5755,
      "administrative": 5756,
      "eux": 5757,
      "publish": 5758,
      "included": 5759,
      "house": 5760,
      "schedu": 5761,
      "status": 5762,
      "pension": 5763,
      "later": 5764,
      "aliné": 5765,
      "objectif": 5766,
      "every": 5767,
      "communauté": 5768,
      "reli": 5769,
      "vérification": 5770,
      "media": 5771,
      "biolog": 5772,
      "ville": 5773,
      "technical": 5774,
      "aspects": 5775,
      "français": 5776,
      "ina": 5777,
      "chewan": 5778,
      "late": 5779,
      "gaz": 5780,
      "several": 5781,
      "lish": 5782,
      "ior": 5783,
      "publication": 5784,
      "fle": 5785,
      "déj": 5786,
      "acquis": 5787,
      "monde": 5788,
      "déjà": 5789,
      "vient": 5790,
      "arr": 5791,
      "emer": 5792,
      "97": 5793,
      "nés": 5794,
      "atchewan": 5795,
      "quels": 5796,
      "propriété": 5797,
      "saskatchewan": 5798,
      "98": 5799,
      "five": 5800,
      "above": 5801,
      "similar": 5802,
      "another": 5803,
      "power": 5804,
      "prob": 5805,
      "reconna": 5806,
      "sport": 5807,
      "developing": 5808,
      "insur": 5809,
      "bs": 5810,
      "ieu": 5811,
      "compos": 5812,
      "job": 5813,
      "ench": 5814,
      "streng": 5815,
      "gas": 5816,
      "cinq": 5817,
      "ek": 5818,
      "purpose": 5819,
      "existing": 5820,
      "bou": 5821,
      "applications": 5822,
      "index": 5823,
      "précé": 5824,
      "ief": 5825,
      "ordination": 5826,
      "em": 5827,
      "britanni": 5828,
      "applicable": 5829,
      "fiscal": 5830,
      "secteurs": 5831,
      "devraient": 5832,
      "ériel": 5833,
      "ei": 5834,
      "43": 5835,
      "aven": 5836,
      "janvier": 5837,
      "effects": 5838,
      "responsible": 5839,
      "january": 5840,
      "issant": 5841,
      "better": 5842,
      "oeuvre": 5843,
      "secré": 5844,
      "fc": 5845,
      "camp": 5846,
      "reporting": 5847,
      "éducation": 5848,
      "lands": 5849,
      "next": 5850,
      "gues": 5851,
      "modifi": 5852,
      "cependant": 5853,
      "ism": 5854,
      "team": 5855,
      "origin": 5856,
      "tableau": 5857,
      "yer": 5858,
      "iso": 5859,
      "tered": 5860,
      "officer": 5861,
      "beg": 5862,
      "trou": 5863,
      "goci": 5864,
      "changements": 5865,
      "manufactur": 5866,
      "42": 5867,
      "domes": 5868,
      "reser": 5869,
      "phys": 5870,
      "cept": 5871,
      "descri": 5872,
      "fisher": 5873,
      "création": 5874,
      "organisme": 5875,
      "uille": 5876,
      "political": 5877,
      "ged": 5878,
      "challen": 5879,
      "partenari": 5880,
      "cooperation": 5881,
      "ground": 5882,
      "cise": 5883,
      "octobre": 5884,
      "employee": 5885,
      "october": 5886,
      "far": 5887,
      "maintain": 5888,
      "exter": 5889,
      "summar": 5890,
      "moder": 5891,
      "entra": 5892,
      "ples": 5893,
      "mn": 5894,
      "terres": 5895,
      "practices": 5896,
      "days": 5897,
      "abs": 5898,
      "oy": 5899,
      "juridi": 5900,
      "forcement": 5901,
      "habitat": 5902,
      "atoire": 5903,
      "marchés": 5904,
      "sciences": 5905,
      "partir": 5906,
      "populations": 5907,
      "lling": 5908,
      "bc": 5909,
      "across": 5910,
      "uit": 5911,
      "command": 5912,
      "said": 5913,
      "parent": 5914,
      "mess": 5915,
      "directe": 5916,
      "obtain": 5917,
      "aucun": 5918,
      "opportunities": 5919,
      "mieux": 5920,
      "ual": 5921,
      "client": 5922,
      "gener": 5923,
      "marchand": 5924,
      "dec": 5925,
      "medical": 5926,
      "500": 5927,
      "poser": 5928,
      "termes": 5929,
      "benefit": 5930,
      "rich": 5931,
      "suffis": 5932,
      "proced": 5933,
      "proposition": 5934,
      "procedures": 5935,
      "mécan": 5936,
      "équipe": 5937,
      "igueur": 5938,
      "columb": 5939,
      "durée": 5940,
      "proven": 5941,
      "prep": 5942,
      "officie": 5943,
      "river": 5944,
      "centres": 5945,
      "opinion": 5946,
      "affairs": 5947,
      "pt": 5948,
      "cham": 5949,
      "quelles": 5950,
      "ax": 5951,
      "indre": 5952,
      "milieu": 5953,
      "held": 5954,
      "labour": 5955,
      "dés": 5956,
      "introduction": 5957,
      "identified": 5958,
      "notice": 5959,
      "estim": 5960,
      "certific": 5961,
      "identify": 5962,
      "1er": 5963,
      "zed": 5964,
      "wide": 5965,
      "although": 5966,
      "ibles": 5967,
      "accordance": 5968,
      "font": 5969,
      "ecu": 5970,
      "alogue": 5971,
      "meille": 5972,
      "premières": 5973,
      "élev": 5974,
      "monitoring": 5975,
      "sain": 5976,
      "pertin": 5977,
      "copy": 5978,
      "procédure": 5979,
      "efficace": 5980,
      "ort": 5981,
      "tempor": 5982,
      "third": 5983,
      "nécessaires": 5984,
      "calcu": 5985,
      "suivi": 5986,
      "meet": 5987,
      "expected": 5988,
      "règles": 5989,
      "sements": 5990,
      "britannique": 5991,
      "négoci": 5992,
      "intention": 5993,
      "proportion": 5994,
      "formed": 5995,
      "connu": 5996,
      "vigueur": 5997,
      "comes": 5998,
      "aging": 5999,
      "best": 6000,
      "ciaux": 6001,
      "acting": 6002,
      "biens": 6003,
      "excell": 6004,
      "columbia": 6005,
      "distin": 6006,
      "sélection": 6007,
      "désig": 6008,
      "brun": 6009,
      "aér": 6010,
      "youth": 6011,
      "disclo": 6012,
      "valid": 6013,
      "half": 6014,
      "figure": 6015,
      "arc": 6016,
      "communautaire": 6017,
      "utiliser": 6018,
      "issances": 6019,
      "deleg": 6020,
      "terre": 6021,
      "november": 6022,
      "ministères": 6023,
      "kes": 6024,
      "ext": 6025,
      "novembre": 6026,
      "instruments": 6027,
      "ending": 6028,
      "serait": 6029,
      "coordination": 6030,
      "html": 6031,
      "paid": 6032,
      "credit": 6033,
      "integr": 6034,
      "companies": 6035,
      "tiz": 6036,
      "english": 6037,
      "pression": 6038,
      "arrange": 6039,
      "défense": 6040,
      "standard": 6041,
      "enregistre": 6042,
      "renfor": 6043,
      "avaient": 6044,
      "having": 6045,
      "viol": 6046,
      "facteurs": 6047,
      "deg": 6048,
      "lack": 6049,
      "adoption": 6050,
      "acter": 6051,
      "provision": 6052,
      "partenaires": 6053,
      "rates": 6054,
      "68": 6055,
      "experts": 6056,
      "espèces": 6057,
      "illet": 6058,
      "going": 6059,
      "gest": 6060,
      "lake": 6061,
      "itaire": 6062,
      "ez": 6063,
      "régu": 6064,
      "cd": 6065,
      "sons": 6066,
      "return": 6067,
      "classification": 6068,
      "approche": 6069,
      "dits": 6070,
      "accro": 6071,
      "ha": 6072,
      "notes": 6073,
      "insurance": 6074,
      "lik": 6075,
      "ready": 6076,
      "planification": 6077,
      "disposition": 6078,
      "flu": 6079,
      "mandat": 6080,
      "france": 6081,
      "ltd": 6082,
      "progress": 6083,
      "electron": 6084,
      "providing": 6085,
      "chair": 6086,
      "great": 6087,
      "gal": 6088,
      "suivants": 6089,
      "grâ": 6090,
      "july": 6091,
      "agit": 6092,
      "file": 6093,
      "associated": 6094,
      "ased": 6095,
      "alinéa": 6096,
      "departments": 6097,
      "lated": 6098,
      "tels": 6099,
      "consist": 6100,
      "chi": 6101,
      "refle": 6102,
      "grâce": 6103,
      "introdu": 6104,
      "trop": 6105,
      "collectivités": 6106,
      "conference": 6107,
      "news": 6108,
      "terr": 6109,
      "ley": 6110,
      "complete": 6111,
      "institute": 6112,
      "économiques": 6113,
      "eas": 6114,
      "concurr": 6115,
      "marchandises": 6116,
      "decisions": 6117,
      "industrial": 6118,
      "agents": 6119,
      "itre": 6120,
      "french": 6121,
      "municipal": 6122,
      "université": 6123,
      "considér": 6124,
      "compétences": 6125,
      "changement": 6126,
      "sustainable": 6127,
      "agencies": 6128,
      "ars": 6129,
      "aliments": 6130,
      "remain": 6131,
      "cherche": 6132,
      "reported": 6133,
      "1993": 6134,
      "souvent": 6135,
      "dated": 6136,
      "dures": 6137,
      "rain": 6138,
      "ette": 6139,
      "appeal": 6140,
      "tiers": 6141,
      "ctors": 6142,
      "ming": 6143,
      "treaty": 6144,
      "discussion": 6145,
      "greater": 6146,
      "liens": 6147,
      "porta": 6148,
      "avantages": 6149,
      "juillet": 6150,
      "réponse": 6151,
      "ération": 6152,
      "mocra": 6153,
      "efficacité": 6154,
      "diffu": 6155,
      "execu": 6156,
      "sociale": 6157,
      "conduc": 6158,
      "attention": 6159,
      "involved": 6160,
      "domaines": 6161,
      "humaines": 6162,
      "priorités": 6163,
      "pau": 6164,
      "ends": 6165,
      "1992": 6166,
      "colomb": 6167,
      "voit": 6168,
      "hosp": 6169,
      "transportation": 6170,
      "77": 6171,
      "chac": 6172,
      "beaucoup": 6173,
      "individuals": 6174,
      "connaissances": 6175,
      "offre": 6176,
      "domestic": 6177,
      "consultations": 6178,
      "enhance": 6179,
      "relation": 6180,
      "colombie": 6181,
      "cting": 6182,
      "deuxième": 6183,
      "réunion": 6184,
      "occasion": 6185,
      "wes": 6186,
      "diffusion": 6187,
      "plant": 6188,
      "deal": 6189,
      "recommandations": 6190,
      "purposes": 6191,
      "directr": 6192,
      "mobil": 6193,
      "denti": 6194,
      "ging": 6195,
      "augmentation": 6196,
      "58": 6197,
      "guidelines": 6198,
      "least": 6199,
      "contrat": 6200,
      "brev": 6201,
      "économie": 6202,
      "exception": 6203,
      "dir": 6204,
      "lib": 6205,
      "ventions": 6206,
      "hol": 6207,
      "échan": 6208,
      "dam": 6209,
      "médica": 6210,
      "gent": 6211,
      "portant": 6212,
      "average": 6213,
      "arti": 6214,
      "sent": 6215,
      "much": 6216,
      "compon": 6217,
      "criter": 6218,
      "citoy": 6219,
      "proposal": 6220,
      "ordre": 6221,
      "favoris": 6222,
      "solutions": 6223,
      "includes": 6224,
      "preuve": 6225,
      "fully": 6226,
      "lignes": 6227,
      "course": 6228,
      "link": 6229,
      "procédures": 6230,
      "oles": 6231,
      "partners": 6232,
      "deb": 6233,
      "rev": 6234,
      "agreements": 6235,
      "iation": 6236,
      "modifications": 6237,
      "durant": 6238,
      "citiz": 6239,
      "suivant": 6240,
      "langues": 6241,
      "volume": 6242,
      "itaires": 6243,
      "front": 6244,
      "ja": 6245,
      "regulatory": 6246,
      "recru": 6247,
      "delivery": 6248,
      "dang": 6249,
      "expend": 6250,
      "compens": 6251,
      "wipo": 6252,
      "réduire": 6253,
      "plupart": 6254,
      "perspe": 6255,
      "incor": 6256,
      "higher": 6257,
      "vas": 6258,
      "forms": 6259,
      "integra": 6260,
      "publics": 6261,
      "ailleurs": 6262,
      "éris": 6263,
      "contamin": 6264,
      "depend": 6265,
      "gés": 6266,
      "vanc": 6267,
      "coût": 6268,
      "énon": 6269,
      "months": 6270,
      "poly": 6271,
      "réglementation": 6272,
      "expendit": 6273,
      "holders": 6274,
      "monstr": 6275,
      "referred": 6276,
      "wal": 6277,
      "figur": 6278,
      "expérience": 6279,
      "adu": 6280,
      "president": 6281,
      "learning": 6282,
      "alisation": 6283,
      "mechan": 6284,
      "recommendations": 6285,
      "déci": 6286,
      "fort": 6287,
      "mg": 6288,
      "vancouver": 6289,
      "itage": 6290,
      "énergie": 6291,
      "lage": 6292,
      "éti": 6293,
      "valeurs": 6294,
      "donner": 6295,
      "volution": 6296,
      "sociétés": 6297,
      "modèle": 6298,
      "langue": 6299,
      "mises": 6300,
      "voie": 6301,
      "function": 6302,
      "financière": 6303,
      "conne": 6304,
      "unit": 6305,
      "permettre": 6306,
      "grès": 6307,
      "discrimination": 6308,
      "constitution": 6309,
      "search": 6310,
      "swick": 6311,
      "responsabil": 6312,
      "engage": 6313,
      "alle": 6314,
      "ajou": 6315,
      "différents": 6316,
      "brunswick": 6317,
      "transports": 6318,
      "96": 6319,
      "likely": 6320,
      "tenus": 6321,
      "patients": 6322,
      "moyens": 6323,
      "adresse": 6324,
      "concerning": 6325,
      "titude": 6326,
      "tenue": 6327,
      "ury": 6328,
      "priorities": 6329,
      "factors": 6330,
      "appui": 6331,
      "increasing": 6332,
      "dge": 6333,
      "tc": 6334,
      "sens": 6335,
      "outi": 6336,
      "desig": 6337,
      "trouver": 6338,
      "liés": 6339,
      "matériel": 6340,
      "fournit": 6341,
      "cô": 6342,
      "engagement": 6343,
      "marine": 6344,
      "conclusions": 6345,
      "contexte": 6346,
      "évaluer": 6347,
      "relationship": 6348,
      "lace": 6349,
      "intervention": 6350,
      "aison": 6351,
      "56": 6352,
      "échelle": 6353,
      "extr": 6354,
      "remo": 6355,
      "iser": 6356,
      "annon": 6357,
      "strong": 6358,
      "agers": 6359,
      "respective": 6360,
      "chef": 6361,
      "archives": 6362,
      "rec": 6363,
      "northern": 6364,
      "permanent": 6365,
      "rail": 6366,
      "gence": 6367,
      "pêche": 6368,
      "former": 6369,
      "early": 6370,
      "technique": 6371,
      "band": 6372,
      "proactive": 6373,
      "chapitre": 6374,
      "lower": 6375,
      "youn": 6376,
      "heures": 6377,
      "existe": 6378,
      "contrô": 6379,
      "goti": 6380,
      "model": 6381,
      "harmon": 6382,
      "57": 6383,
      "kno": 6384,
      "aéri": 6385,
      "travel": 6386,
      "regarding": 6387,
      "elig": 6388,
      "defence": 6389,
      "eco": 6390,
      "mean": 6391,
      "ront": 6392,
      "principaux": 6393,
      "rup": 6394,
      "funds": 6395,
      "parmi": 6396,
      "critères": 6397,
      "military": 6398,
      "fall": 6399,
      "cipe": 6400,
      "là": 6401,
      "principes": 6402,
      "maximum": 6403,
      "compu": 6404,
      "taires": 6405,
      "rati": 6406,
      "cross": 6407,
      "gene": 6408,
      "aqu": 6409,
      "ond": 6410,
      "impôt": 6411,
      "overall": 6412,
      "toge": 6413,
      "responsabilité": 6414,
      "méthodes": 6415,
      "stake": 6416,
      "suivantes": 6417,
      "together": 6418,
      "internal": 6419,
      "entraî": 6420,
      "negoti": 6421,
      "lies": 6422,
      "tôt": 6423,
      "professional": 6424,
      "1991": 6425,
      "statement": 6426,
      "intérieur": 6427,
      "combin": 6428,
      "réduction": 6429,
      "minimum": 6430,
      "branch": 6431,
      "share": 6432,
      "ational": 6433,
      "proceed": 6434,
      "ids": 6435,
      "resource": 6436,
      "eded": 6437,
      "mm": 6438,
      "format": 6439,
      "vrier": 6440,
      "positive": 6441,
      "upon": 6442,
      "toujours": 6443,
      "diction": 6444,
      "orie": 6445,
      "gam": 6446,
      "relativement": 6447,
      "categ": 6448,
      "governments": 6449,
      "formes": 6450,
      "durable": 6451,
      "payment": 6452,
      "investig": 6453,
      "lois": 6454,
      "fond": 6455,
      "juris": 6456,
      "character": 6457,
      "modification": 6458,
      "sele": 6459,
      "amélioration": 6460,
      "facilit": 6461,
      "compliance": 6462,
      "febr": 6463,
      "matique": 6464,
      "autorités": 6465,
      "selection": 6466,
      "enz": 6467,
      "haut": 6468,
      "problems": 6469,
      "heritage": 6470,
      "consomma": 6471,
      "february": 6472,
      "crédit": 6473,
      "often": 6474,
      "évent": 6475,
      "émissions": 6476,
      "lay": 6477,
      "début": 6478,
      "native": 6479,
      "vise": 6480,
      "dc": 6481,
      "exécution": 6482,
      "still": 6483,
      "enseig": 6484,
      "ador": 6485,
      "rapide": 6486,
      "priority": 6487,
      "sema": 6488,
      "applicant": 6489,
      "neu": 6490,
      "ao": 6491,
      "ète": 6492,
      "février": 6493,
      "réserve": 6494,
      "abilities": 6495,
      "vehic": 6496,
      "marque": 6497,
      "électronique": 6498,
      "competition": 6499,
      "adopted": 6500,
      "pir": 6501,
      "practice": 6502,
      "paper": 6503,
      "pursuant": 6504,
      "hui": 6505,
      "réserv": 6506,
      "particularly": 6507,
      "êtes": 6508,
      "plor": 6509,
      "spécialis": 6510,
      "59": 6511,
      "determine": 6512,
      "asse": 6513,
      "awar": 6514,
      "gouvernements": 6515,
      "intérêts": 6516,
      "sul": 6517,
      "yuk": 6518,
      "mondiale": 6519,
      "austr": 6520,
      "rac": 6521,
      "pratique": 6522,
      "nationales": 6523,
      "matter": 6524,
      "transi": 6525,
      "physi": 6526,
      "enregistrement": 6527,
      "leadership": 6528,
      "87": 6529,
      "adver": 6530,
      "origine": 6531,
      "appen": 6532,
      "ize": 6533,
      "niveaux": 6534,
      "smo": 6535,
      "south": 6536,
      "caractéris": 6537,
      "russi": 6538,
      "criteria": 6539,
      "workers": 6540,
      "payments": 6541,
      "copie": 6542,
      "pourraient": 6543,
      "supply": 6544,
      "sses": 6545,
      "patent": 6546,
      "comprend": 6547,
      "aries": 6548,
      "montréal": 6549,
      "sam": 6550,
      "ious": 6551,
      "vit": 6552,
      "ey": 6553,
      "importants": 6554,
      "chem": 6555,
      "absence": 6556,
      "students": 6557,
      "known": 6558,
      "lai": 6559,
      "nombreux": 6560,
      "finding": 6561,
      "couver": 6562,
      "yukon": 6563,
      "saint": 6564,
      "lot": 6565,
      "fédé": 6566,
      "tillon": 6567,
      "garanti": 6568,
      "dri": 6569,
      "summary": 6570,
      "prepar": 6571,
      "procedure": 6572,
      "communaut": 6573,
      "importante": 6574,
      "either": 6575,
      "entente": 6576,
      "dernier": 6577,
      "proch": 6578,
      "conférence": 6579,
      "advance": 6580,
      "94": 6581,
      "languages": 6582,
      "disci": 6583,
      "processes": 6584,
      "discipl": 6585,
      "ster": 6586,
      "investissement": 6587,
      "touch": 6588,
      "fair": 6589,
      "sch": 6590,
      "conclusion": 6591,
      "cancer": 6592,
      "mach": 6593,
      "bonne": 6594,
      "reach": 6595,
      "explor": 6596,
      "noted": 6597,
      "devant": 6598,
      "immigration": 6599,
      "currently": 6600,
      "interpré": 6601,
      "obser": 6602,
      "md": 6603,
      "recherches": 6604,
      "short": 6605,
      "pois": 6606,
      "qués": 6607,
      "recours": 6608,
      "prestation": 6609,
      "dig": 6610,
      "ham": 6611,
      "city": 6612,
      "comporte": 6613,
      "tary": 6614,
      "american": 6615,
      "demonstr": 6616,
      "fau": 6617,
      "strengthen": 6618,
      "colon": 6619,
      "become": 6620,
      "regions": 6621,
      "values": 6622,
      "ino": 6623,
      "industries": 6624,
      "patrim": 6625,
      "échantillon": 6626,
      "travailleurs": 6627,
      "nit": 6628,
      "already": 6629,
      "draft": 6630,
      "toxic": 6631,
      "incorpor": 6632,
      "incidence": 6633,
      "paci": 6634,
      "identification": 6635,
      "independ": 6636,
      "érer": 6637,
      "inspection": 6638,
      "voc": 6639,
      "chim": 6640,
      "obligation": 6641,
      "fédérale": 6642,
      "past": 6643,
      "apprenti": 6644,
      "apport": 6645,
      "consistent": 6646,
      "gement": 6647,
      "communautés": 6648,
      "aim": 6649,
      "financiers": 6650,
      "sph": 6651,
      "statistics": 6652,
      "jury": 6653,
      "regular": 6654,
      "conseils": 6655,
      "davantage": 6656,
      "moyenne": 6657,
      "mariti": 6658,
      "divul": 6659,
      "assembly": 6660,
      "assemblée": 6661,
      "remb": 6662,
      "single": 6663,
      "liées": 6664,
      "understanding": 6665,
      "ore": 6666,
      "mid": 6667,
      "véhic": 6668,
      "répondre": 6669,
      "thing": 6670,
      "stratégique": 6671,
      "electronic": 6672,
      "surface": 6673,
      "tw": 6674,
      "directement": 6675,
      "promote": 6676,
      "chois": 6677,
      "cellu": 6678,
      "parce": 6679,
      "expli": 6680,
      "content": 6681,
      "bis": 6682,
      "farm": 6683,
      "particulièrement": 6684,
      "young": 6685,
      "intes": 6686,
      "others": 6687,
      "nutri": 6688,
      "commen": 6689,
      "affir": 6690,
      "toire": 6691,
      "approxi": 6692,
      "approved": 6693,
      "piè": 6694,
      "collabor": 6695,
      "options": 6696,
      "tier": 6697,
      "atlantic": 6698,
      "ind": 6699,
      "mine": 6700,
      "assu": 6701,
      "objective": 6702,
      "ately": 6703,
      "nance": 6704,
      "economy": 6705,
      "submitted": 6706,
      "fisheries": 6707,
      "législa": 6708,
      "reçu": 6709,
      "works": 6710,
      "argu": 6711,
      "famille": 6712,
      "rural": 6713,
      "ût": 6714,
      "internationales": 6715,
      "intég": 6716,
      "estima": 6717,
      "registration": 6718,
      "fournisse": 6719,
      "61": 6720,
      "ically": 6721,
      "wat": 6722,
      "body": 6723,
      "64": 6724,
      "interpre": 6725,
      "coll": 6726,
      "links": 6727,
      "close": 6728,
      "exchange": 6729,
      "neur": 6730,
      "violence": 6731,
      "véhicu": 6732,
      "faible": 6733,
      "ciale": 6734,
      "seul": 6735,
      "mately": 6736,
      "chlor": 6737,
      "park": 6738,
      "announ": 6739,
      "jourd": 6740,
      "responsable": 6741,
      "directly": 6742,
      "scientific": 6743,
      "maire": 6744,
      "actuellement": 6745,
      "publiques": 6746,
      "calcul": 6747,
      "forum": 6748,
      "prestations": 6749,
      "auton": 6750,
      "rémun": 6751,
      "aujourd": 6752,
      "rã": 6753,
      "représentants": 6754,
      "appar": 6755,
      "revenue": 6756,
      "issements": 6757,
      "visit": 6758,
      "invent": 6759,
      "equal": 6760,
      "western": 6761,
      "quoi": 6762,
      "délég": 6763,
      "responsibility": 6764,
      "tées": 6765,
      "quelques": 6766,
      "arts": 6767,
      "rem": 6768,
      "context": 6769,
      "plain": 6770,
      "transfert": 6771,
      "itions": 6772,
      "principles": 6773,
      "lutte": 6774,
      "dus": 6775,
      "délai": 6776,
      "prevention": 6777,
      "médias": 6778,
      "susp": 6779,
      "dialogue": 6780,
      "bra": 6781,
      "maintenant": 6782,
      "franco": 6783,
      "installations": 6784,
      "banque": 6785,
      "discussions": 6786,
      "usage": 6787,
      "deci": 6788,
      "signed": 6789,
      "expen": 6790,
      "législation": 6791,
      "ennes": 6792,
      "skills": 6793,
      "vou": 6794,
      "anglais": 6795,
      "suivre": 6796,
      "mac": 6797,
      "coordin": 6798,
      "définition": 6799,
      "transition": 6800,
      "disclosure": 6801,
      "below": 6802,
      "ium": 6803,
      "statu": 6804,
      "fré": 6805,
      "stock": 6806,
      "dirig": 6807,
      "record": 6808,
      "protoco": 6809,
      "deme": 6810,
      "balance": 6811,
      "separ": 6812,
      "chemical": 6813,
      "completed": 6814,
      "dimen": 6815,
      "collection": 6816,
      "connex": 6817,
      "conséquent": 6818,
      "vente": 6819,
      "aa": 6820,
      "materials": 6821,
      "intervenants": 6822,
      "51": 6823,
      "tariff": 6824,
      "doc": 6825,
      "parts": 6826,
      "distric": 6827,
      "acte": 6828,
      "série": 6829,
      "agre": 6830,
      "rene": 6831,
      "cycle": 6832,
      "ministres": 6833,
      "fonctions": 6834,
      "letter": 6835,
      "aller": 6836,
      "69": 6837,
      "compren": 6838,
      "wards": 6839,
      "âge": 6840,
      "applied": 6841,
      "reduce": 6842,
      "collective": 6843,
      "étaire": 6844,
      "events": 6845,
      "dp": 6846,
      "disease": 6847,
      "mich": 6848,
      "gens": 6849,
      "influence": 6850,
      "méthode": 6851,
      "appare": 6852,
      "reso": 6853,
      "tie": 6854,
      "until": 6855,
      "tine": 6856,
      "text": 6857,
      "possibilité": 6858,
      "xx": 6859,
      "52": 6860,
      "trés": 6861,
      "homme": 6862,
      "employé": 6863,
      "etats": 6864,
      "porteur": 6865,
      "élevé": 6866,
      "prévention": 6867,
      "telle": 6868,
      "carry": 6869,
      "icient": 6870,
      "chapter": 6871,
      "profit": 6872,
      "entrée": 6873,
      "alco": 6874,
      "différentes": 6875,
      "eaux": 6876,
      "terroris": 6877,
      "maladies": 6878,
      "augu": 6879,
      "operating": 6880,
      "renforcer": 6881,
      "relating": 6882,
      "vote": 6883,
      "retour": 6884,
      "diverses": 6885,
      "subs": 6886,
      "bay": 6887,
      "ene": 6888,
      "ompi": 6889,
      "diminu": 6890,
      "prepared": 6891,
      "deliver": 6892,
      "ciper": 6893,
      "ablement": 6894,
      "présenter": 6895,
      "sea": 6896,
      "territorial": 6897,
      "progrès": 6898,
      "précédent": 6899,
      "observations": 6900,
      "illes": 6901,
      "54": 6902,
      "tention": 6903,
      "corporate": 6904,
      "voyage": 6905,
      "infor": 6906,
      "marke": 6907,
      "promou": 6908,
      "postes": 6909,
      "réun": 6910,
      "sensibil": 6911,
      "bulle": 6912,
      "dées": 6913,
      "las": 6914,
      "sugges": 6915,
      "renouve": 6916,
      "rig": 6917,
      "lion": 6918,
      "broadcas": 6919,
      "prévues": 6920,
      "examiner": 6921,
      "enregistr": 6922,
      "outils": 6923,
      "resid": 6924,
      "appoint": 6925,
      "tan": 6926,
      "substance": 6927,
      "téléphone": 6928,
      "nd": 6929,
      "entrepren": 6930,
      "issued": 6931,
      "kg": 6932,
      "located": 6933,
      "purch": 6934,
      "domin": 6935,
      "facilities": 6936,
      "ought": 6937,
      "glob": 6938,
      "heure": 6939,
      "sociaux": 6940,
      "published": 6941,
      "ka": 6942,
      "schedule": 6943,
      "price": 6944,
      "encourage": 6945,
      "ering": 6946,
      "conducted": 6947,
      "via": 6948,
      "tools": 6949,
      "opportunity": 6950,
      "problème": 6951,
      "clés": 6952,
      "passer": 6953,
      "departmental": 6954,
      "agne": 6955,
      "ray": 6956,
      "istan": 6957,
      "signal": 6958,
      "craft": 6959,
      "iers": 6960,
      "august": 6961,
      "63": 6962,
      "constitue": 6963,
      "promouvoir": 6964,
      "placement": 6965,
      "cannot": 6966,
      "53": 6967,
      "intellectuelle": 6968,
      "participer": 6969,
      "dipl": 6970,
      "réper": 6971,
      "disponibles": 6972,
      "décou": 6973,
      "choix": 6974,
      "clé": 6975,
      "comments": 6976,
      "equ": 6977,
      "fut": 6978,
      "catégorie": 6979,
      "créer": 6980,
      "oxy": 6981,
      "hommes": 6982,
      "faisant": 6983,
      "sufficient": 6984,
      "dépos": 6985,
      "week": 6986,
      "needed": 6987,
      "today": 6988,
      "thus": 6989,
      "revenus": 6990,
      "writ": 6991,
      "wil": 6992,
      "offrir": 6993,
      "ended": 6994,
      "consommation": 6995,
      "concerned": 6996,
      "jap": 6997,
      "indiqué": 6998,
      "servir": 6999,
      "wood": 7000,
      "shop": 7001,
      "obst": 7002,
      "chercheurs": 7003,
      "présence": 7004,
      "étranger": 7005,
      "territoire": 7006,
      "parents": 7007,
      "presented": 7008,
      "determined": 7009,
      "possibilités": 7010,
      "nic": 7011,
      "août": 7012,
      "please": 7013,
      "91": 7014,
      "nova": 7015,
      "safe": 7016,
      "appell": 7017,
      "________________________________": 7018,
      "instrument": 7019,
      "tise": 7020,
      "candidats": 7021,
      "effici": 7022,
      "outside": 7023,
      "documentation": 7024,
      "actual": 7025,
      "médicaments": 7026,
      "rule": 7027,
      "option": 7028,
      "78": 7029,
      "ctric": 7030,
      "concentration": 7031,
      "enseignement": 7032,
      "ministers": 7033,
      "principe": 7034,
      "utilisé": 7035,
      "criminal": 7036,
      "bénéfici": 7037,
      "fabrication": 7038,
      "tables": 7039,
      "secretariat": 7040,
      "pilo": 7041,
      "apprentiss": 7042,
      "history": 7043,
      "chief": 7044,
      "justification": 7045,
      "circum": 7046,
      "privé": 7047,
      "primary": 7048,
      "présentation": 7049,
      "zones": 7050,
      "dernière": 7051,
      "alli": 7052,
      "coming": 7053,
      "associations": 7054,
      "oine": 7055,
      "personnels": 7056,
      "progres": 7057,
      "généra": 7058,
      "reti": 7059,
      "concentrations": 7060,
      "faits": 7061,
      "executive": 7062,
      "telles": 7063,
      "utilisés": 7064,
      "commiss": 7065,
      "structures": 7066,
      "supplémentaires": 7067,
      "matières": 7068,
      "ennent": 7069,
      "tance": 7070,
      "patrimoine": 7071,
      "claire": 7072,
      "dossier": 7073,
      "institut": 7074,
      "plutôt": 7075,
      "fel": 7076,
      "senior": 7077,
      "profon": 7078,
      "iled": 7079,
      "cepti": 7080,
      "representative": 7081,
      "contenu": 7082,
      "paiements": 7083,
      "strategies": 7084,
      "prévoit": 7085,
      "apprentissage": 7086,
      "scre": 7087,
      "conduct": 7088,
      "détaill": 7089,
      "basic": 7090,
      "transmission": 7091,
      "approval": 7092,
      "capit": 7093,
      "aurait": 7094,
      "lequel": 7095,
      "règlements": 7096,
      "keep": 7097,
      "maladie": 7098,
      "attach": 7099,
      "secrétariat": 7100,
      "efficient": 7101,
      "bulletin": 7102,
      "feed": 7103,
      "ably": 7104,
      "operational": 7105,
      "flo": 7106,
      "modern": 7107,
      "évé": 7108,
      "republic": 7109,
      "procure": 7110,
      "trésor": 7111,
      "intégration": 7112,
      "candidates": 7113,
      "sections": 7114,
      "fonctionnement": 7115,
      "combat": 7116,
      "generally": 7117,
      "pied": 7118,
      "stakeholders": 7119,
      "island": 7120,
      "annuel": 7121,
      "jean": 7122,
      "tence": 7123,
      "consommateurs": 7124,
      "challenges": 7125,
      "élaborer": 7126,
      "star": 7127,
      "directives": 7128,
      "volun": 7129,
      "autorisation": 7130,
      "orientation": 7131,
      "bois": 7132,
      "described": 7133,
      "hun": 7134,
      "acci": 7135,
      "accessible": 7136,
      "norm": 7137,
      "commentaires": 7138,
      "designed": 7139,
      "champ": 7140,
      "directrices": 7141,
      "permit": 7142,
      "teach": 7143,
      "might": 7144,
      "ns": 7145,
      "demander": 7146,
      "financier": 7147,
      "92": 7148,
      "établissements": 7149,
      "integrated": 7150,
      "gary": 7151,
      "éth": 7152,
      "300": 7153,
      "defined": 7154,
      "ède": 7155,
      "élimin": 7156,
      "royal": 7157,
      "once": 7158,
      "vos": 7159,
      "compet": 7160,
      "jeux": 7161,
      "expertise": 7162,
      "solid": 7163,
      "visite": 7164,
      "ège": 7165,
      "oil": 7166,
      "sures": 7167,
      "sof": 7168,
      "methods": 7169,
      "lled": 7170,
      "indicated": 7171,
      "quée": 7172,
      "élément": 7173,
      "suscepti": 7174,
      "give": 7175,
      "user": 7176,
      "ounds": 7177,
      "tard": 7178,
      "liers": 7179,
      "thre": 7180,
      "bir": 7181,
      "offices": 7182,
      "find": 7183,
      "transpar": 7184,
      "entit": 7185,
      "paiement": 7186,
      "reduction": 7187,
      "achieve": 7188,
      "donne": 7189,
      "prince": 7190,
      "responsabilités": 7191,
      "raisonn": 7192,
      "ît": 7193,
      "ande": 7194,
      "hours": 7195,
      "communautaires": 7196,
      "bation": 7197,
      "én": 7198,
      "rendre": 7199,
      "registered": 7200,
      "800": 7201,
      "acquisition": 7202,
      "cb": 7203,
      "continued": 7204,
      "adul": 7205,
      "customs": 7206,
      "iving": 7207,
      "1a": 7208,
      "labr": 7209,
      "préoccup": 7210,
      "nun": 7211,
      "nant": 7212,
      "honor": 7213,
      "lent": 7214,
      "adequ": 7215,
      "expan": 7216,
      "fonda": 7217,
      "mainten": 7218,
      "indian": 7219,
      "station": 7220,
      "resolution": 7221,
      "professionnels": 7222,
      "size": 7223,
      "journal": 7224,
      "liber": 7225,
      "marketing": 7226,
      "62": 7227,
      "initial": 7228,
      "endro": 7229,
      "dernières": 7230,
      "depu": 7231,
      "provenant": 7232,
      "assis": 7233,
      "release": 7234,
      "concerns": 7235,
      "around": 7236,
      "déposé": 7237,
      "substanti": 7238,
      "lant": 7239,
      "stor": 7240,
      "mêmes": 7241,
      "load": 7242,
      "oce": 7243,
      "delegation": 7244,
      "map": 7245,
      "van": 7246,
      "say": 7247,
      "territoires": 7248,
      "appendix": 7249,
      "employer": 7250,
      "érieures": 7251,
      "belie": 7252,
      "rejet": 7253,
      "correspond": 7254,
      "dépôt": 7255,
      "near": 7256,
      "planned": 7257,
      "tt": 7258,
      "occur": 7259,
      "labrador": 7260,
      "engine": 7261,
      "trust": 7262,
      "habitu": 7263,
      "république": 7264,
      "dispos": 7265,
      "93": 7266,
      "impacts": 7267,
      "placed": 7268,
      "concurrence": 7269,
      "arily": 7270,
      "financières": 7271,
      "him": 7272,
      "immun": 7273,
      "along": 7274,
      "grands": 7275,
      "specified": 7276,
      "rep": 7277,
      "markets": 7278,
      "receive": 7279,
      "consumer": 7280,
      "tps": 7281,
      "importantes": 7282,
      "limité": 7283,
      "cks": 7284,
      "pollution": 7285,
      "permettant": 7286,
      "bul": 7287,
      "vice": 7288,
      "box": 7289,
      "stratégies": 7290,
      "addres": 7291,
      "répond": 7292,
      "slo": 7293,
      "accords": 7294,
      "conven": 7295,
      "civi": 7296,
      "waste": 7297,
      "climate": 7298,
      "gs": 7299,
      "commitment": 7300,
      "échange": 7301,
      "avez": 7302,
      "forest": 7303,
      "eligible": 7304,
      "asp": 7305,
      "texte": 7306,
      "expenses": 7307,
      "tia": 7308,
      "gées": 7309,
      "envis": 7310,
      "fié": 7311,
      "conformité": 7312,
      "gain": 7313,
      "cp": 7314,
      "situations": 7315,
      "records": 7316,
      "treas": 7317,
      "atures": 7318,
      "cés": 7319,
      "capacités": 7320,
      "thè": 7321,
      "pet": 7322,
      "environnementale": 7323,
      "accroître": 7324,
      "bert": 7325,
      "comprendre": 7326,
      "représentant": 7327,
      "souh": 7328,
      "applique": 7329,
      "obstac": 7330,
      "cm": 7331,
      "definition": 7332,
      "minim": 7333,
      "billion": 7334,
      "district": 7335,
      "auteur": 7336,
      "souhait": 7337,
      "dan": 7338,
      "done": 7339,
      "riel": 7340,
      "trouve": 7341,
      "privacy": 7342,
      "space": 7343,
      "meetings": 7344,
      "atteindre": 7345,
      "tability": 7346,
      "diag": 7347,
      "interview": 7348,
      "flow": 7349,
      "cab": 7350,
      "rembour": 7351,
      "lev": 7352,
      "indépend": 7353,
      "came": 7354,
      "réus": 7355,
      "agreed": 7356,
      "external": 7357,
      "traditional": 7358,
      "ides": 7359,
      "hér": 7360,
      "demandé": 7361,
      "chemin": 7362,
      "independent": 7363,
      "finances": 7364,
      "throughout": 7365,
      "atlantique": 7366,
      "lou": 7367,
      "installation": 7368,
      "poin": 7369,
      "emergen": 7370,
      "pic": 7371,
      "town": 7372,
      "priorité": 7373,
      "frequ": 7374,
      "ault": 7375,
      "divulgation": 7376,
      "relatifs": 7377,
      "dia": 7378,
      "consideration": 7379,
      "maintenance": 7380,
      "conflic": 7381,
      "approximately": 7382,
      "1987": 7383,
      "stated": 7384,
      "extérieur": 7385,
      "decre": 7386,
      "juridique": 7387,
      "extent": 7388,
      "érieurs": 7389,
      "carried": 7390,
      "vu": 7391,
      "exposition": 7392,
      "spr": 7393,
      "enforcement": 7394,
      "dessus": 7395,
      "év": 7396,
      "representatives": 7397,
      "supervis": 7398,
      "passe": 7399,
      "telephone": 7400,
      "called": 7401,
      "effort": 7402,
      "comptes": 7403,
      "pack": 7404,
      "few": 7405,
      "hô": 7406,
      "clair": 7407,
      "partenariat": 7408,
      "wing": 7409,
      "stream": 7410,
      "nomination": 7411,
      "produced": 7412,
      "physical": 7413,
      "essential": 7414,
      "larg": 7415,
      "espe": 7416,
      "appliquer": 7417,
      "arbit": 7418,
      "exhi": 7419,
      "compensation": 7420,
      "travaill": 7421,
      "dynam": 7422,
      "généralement": 7423,
      "screen": 7424,
      "deputy": 7425,
      "améric": 7426,
      "alimentaire": 7427,
      "enda": 7428,
      "arrangements": 7429,
      "fla": 7430,
      "tale": 7431,
      "unité": 7432,
      "crime": 7433,
      "tâ": 7434,
      "legisla": 7435,
      "expo": 7436,
      "intéress": 7437,
      "scientifiques": 7438,
      "atic": 7439,
      "coordon": 7440,
      "délégation": 7441,
      "résu": 7442,
      "details": 7443,
      "itable": 7444,
      "expression": 7445,
      "chron": 7446,
      "étudiants": 7447,
      "soulig": 7448,
      "wild": 7449,
      "avenir": 7450,
      "reques": 7451,
      "impos": 7452,
      "room": 7453,
      "indique": 7454,
      "liqui": 7455,
      "spending": 7456,
      "sectors": 7457,
      "éventu": 7458,
      "pct": 7459,
      "og": 7460,
      "hospital": 7461,
      "scope": 7462,
      "pouv": 7463,
      "old": 7464,
      "nunav": 7465,
      "payer": 7466,
      "mping": 7467,
      "creation": 7468,
      "rather": 7469,
      "psy": 7470,
      "awareness": 7471,
      "mix": 7472,
      "récent": 7473,
      "prime": 7474,
      "diversity": 7475,
      "ney": 7476,
      "sales": 7477,
      "rempl": 7478,
      "reasons": 7479,
      "hiv": 7480,
      "aircraft": 7481,
      "démocra": 7482,
      "veuille": 7483,
      "estimates": 7484,
      "begin": 7485,
      "fron": 7486,
      "towards": 7487,
      "envoy": 7488,
      "cumu": 7489,
      "marks": 7490,
      "bibli": 7491,
      "blo": 7492,
      "amérique": 7493,
      "cially": 7494,
      "prevent": 7495,
      "veuillez": 7496,
      "libr": 7497,
      "living": 7498,
      "mace": 7499,
      "lingu": 7500,
      "circumst": 7501,
      "responsibilities": 7502,
      "existence": 7503,
      "taxes": 7504,
      "ford": 7505,
      "problem": 7506,
      "propre": 7507,
      "èrent": 7508,
      "diversité": 7509,
      "matiques": 7510,
      "elements": 7511,
      "blement": 7512,
      "commissioner": 7513,
      "84": 7514,
      "gée": 7515,
      "fédéraux": 7516,
      "compre": 7517,
      "1989": 7518,
      "requires": 7519,
      "régional": 7520,
      "citoyens": 7521,
      "actuelle": 7522,
      "ghan": 7523,
      "bres": 7524,
      "intended": 7525,
      "déclaré": 7526,
      "sorte": 7527,
      "nombreuses": 7528,
      "recommandation": 7529,
      "cihr": 7530,
      "border": 7531,
      "guid": 7532,
      "faction": 7533,
      "atoires": 7534,
      "unch": 7535,
      "especially": 7536,
      "internationaux": 7537,
      "peg": 7538,
      "400": 7539,
      "claims": 7540,
      "évolution": 7541,
      "tv": 7542,
      "reserve": 7543,
      "áá": 7544,
      "muse": 7545,
      "comprehen": 7546,
      "processing": 7547,
      "treasury": 7548,
      "emissions": 7549,
      "km": 7550,
      "72": 7551,
      "guar": 7552,
      "89": 7553,
      "establishment": 7554,
      "america": 7555,
      "rémunération": 7556,
      "taur": 7557,
      "formulaire": 7558,
      "consulta": 7559,
      "suivante": 7560,
      "create": 7561,
      "nis": 7562,
      "investissements": 7563,
      "ae": 7564,
      "lymp": 7565,
      "hous": 7566,
      "ensus": 7567,
      "taxe": 7568,
      "look": 7569,
      "appellant": 7570,
      "officielles": 7571,
      "nécessité": 7572,
      "propres": 7573,
      "added": 7574,
      "hc": 7575,
      "responsables": 7576,
      "1985": 7577,
      "confidenti": 7578,
      "commod": 7579,
      "requirement": 7580,
      "die": 7581,
      "espèce": 7582,
      "mers": 7583,
      "simi": 7584,
      "ctoral": 7585,
      "propositions": 7586,
      "amendments": 7587,
      "pêches": 7588,
      "depos": 7589,
      "cie": 7590,
      "vio": 7591,
      "institutional": 7592,
      "custom": 7593,
      "subsi": 7594,
      "quence": 7595,
      "surtout": 7596,
      "chacun": 7597,
      "intellectual": 7598,
      "hypo": 7599,
      "dossiers": 7600,
      "concept": 7601,
      "médec": 7602,
      "grandes": 7603,
      "interests": 7604,
      "statut": 7605,
      "mutu": 7606,
      "mandate": 7607,
      "risks": 7608,
      "fici": 7609,
      "engagements": 7610,
      "recommendation": 7611,
      "leave": 7612,
      "faciliter": 7613,
      "indemn": 7614,
      "chau": 7615,
      "alternative": 7616,
      "longer": 7617,
      "tests": 7618,
      "immedi": 7619,
      "covered": 7620,
      "manif": 7621,
      "phil": 7622,
      "vr": 7623,
      "pourcent": 7624,
      "mage": 7625,
      "erie": 7626,
      "autorité": 7627,
      "stratégiques": 7628,
      "dã": 7629,
      "rappe": 7630,
      "proposals": 7631,
      "réparti": 7632,
      "prévu": 7633,
      "written": 7634,
      "pages": 7635,
      "tural": 7636,
      "protéger": 7637,
      "drugs": 7638,
      "panel": 7639,
      "dep": 7640,
      "successful": 7641,
      "valent": 7642,
      "seas": 7643,
      "1988": 7644,
      "circumstances": 7645,
      "east": 7646,
      "favor": 7647,
      "formal": 7648,
      "mesur": 7649,
      "film": 7650,
      "disponible": 7651,
      "locaux": 7652,
      "book": 7653,
      "advant": 7654,
      "ira": 7655,
      "ligh": 7656,
      "cter": 7657,
      "territories": 7658,
      "forward": 7659,
      "préparation": 7660,
      "pul": 7661,
      "integration": 7662,
      "normal": 7663,
      "excellence": 7664,
      "bill": 7665,
      "86": 7666,
      "consac": 7667,
      "constat": 7668,
      "parc": 7669,
      "garde": 7670,
      "asked": 7671,
      "investigation": 7672,
      "route": 7673,
      "irsc": 7674,
      "quand": 7675,
      "éché": 7676,
      "compared": 7677,
      "lettre": 7678,
      "usu": 7679,
      "gradu": 7680,
      "çu": 7681,
      "cell": 7682,
      "press": 7683,
      "navig": 7684,
      "hes": 7685,
      "pm": 7686,
      "agricultural": 7687,
      "contribute": 7688,
      "inuit": 7689,
      "eration": 7690,
      "accompl": 7691,
      "laur": 7692,
      "wg": 7693,
      "courriel": 7694,
      "ose": 7695,
      "affaire": 7696,
      "linguis": 7697,
      "logy": 7698,
      "explic": 7699,
      "fire": 7700,
      "ws": 7701,
      "sts": 7702,
      "estimated": 7703,
      "critical": 7704,
      "parks": 7705,
      "illus": 7706,
      "mosph": 7707,
      "fail": 7708,
      "douan": 7709,
      "employeur": 7710,
      "caractéristiques": 7711,
      "charges": 7712,
      "visée": 7713,
      "statistiques": 7714,
      "2009": 7715,
      "relatif": 7716,
      "bâ": 7717,
      "detailed": 7718,
      "favour": 7719,
      "présenté": 7720,
      "parcs": 7721,
      "ports": 7722,
      "sauf": 7723,
      "rage": 7724,
      "satisfaction": 7725,
      "dumping": 7726,
      "reasonable": 7727,
      "estime": 7728,
      "hard": 7729,
      "engag": 7730,
      "atmosph": 7731,
      "tenues": 7732,
      "relig": 7733,
      "comprehensive": 7734,
      "trac": 7735,
      "election": 7736,
      "semin": 7737,
      "thin": 7738,
      "feu": 7739,
      "manufacturing": 7740,
      "bring": 7741,
      "scotia": 7742,
      "unies": 7743,
      "classe": 7744,
      "created": 7745,
      "judici": 7746,
      "famili": 7747,
      "principle": 7748,
      "run": 7749,
      "phon": 7750,
      "considéra": 7751,
      "portu": 7752,
      "dès": 7753,
      "fri": 7754,
      "info": 7755,
      "lacement": 7756,
      "title": 7757,
      "producteurs": 7758,
      "semble": 7759,
      "ctif": 7760,
      "emergency": 7761,
      "aids": 7762,
      "urban": 7763,
      "ify": 7764,
      "guerre": 7765,
      "étape": 7766,
      "73": 7767,
      "chiff": 7768,
      "fusion": 7769,
      "animaux": 7770,
      "istance": 7771,
      "behalf": 7772,
      "pace": 7773,
      "83": 7774,
      "advice": 7775,
      "matic": 7776,
      "cers": 7777,
      "réseaux": 7778,
      "street": 7779,
      "datab": 7780,
      "sels": 7781,
      "favoriser": 7782,
      "series": 7783,
      "subventions": 7784,
      "écrit": 7785,
      "territori": 7786,
      "officers": 7787,
      "76": 7788,
      "raisons": 7789,
      "bell": 7790,
      "taille": 7791,
      "conver": 7792,
      "manner": 7793,
      "bag": 7794,
      "rapporteur": 7795,
      "money": 7796,
      "advisory": 7797,
      "charter": 7798,
      "wish": 7799,
      "collectivité": 7800,
      "acceptable": 7801,
      "communiquer": 7802,
      "phen": 7803,
      "maritime": 7804,
      "horiz": 7805,
      "behav": 7806,
      "fees": 7807,
      "testing": 7808,
      "website": 7809,
      "kers": 7810,
      "supported": 7811,
      "dési": 7812,
      "africa": 7813,
      "ctiveness": 7814,
      "urgence": 7815,
      "opti": 7816,
      "ongoing": 7817,
      "lateral": 7818,
      "lait": 7819,
      "improved": 7820,
      "pens": 7821,
      "lien": 7822,
      "militaire": 7823,
      "ènes": 7824,
      "centrale": 7825,
      "compétence": 7826,
      "designated": 7827,
      "scientifique": 7828,
      "résolution": 7829,
      "sett": 7830,
      "succès": 7831,
      "menting": 7832,
      "exportation": 7833,
      "moun": 7834,
      "simple": 7835,
      "conception": 7836,
      "reduced": 7837,
      "sommes": 7838,
      "patient": 7839,
      "71": 7840,
      "white": 7841,
      "interne": 7842,
      "modèles": 7843,
      "manager": 7844,
      "method": 7845,
      "rang": 7846,
      "dav": 7847,
      "proposé": 7848,
      "perfe": 7849,
      "libre": 7850,
      "stage": 7851,
      "ismes": 7852,
      "rivi": 7853,
      "winni": 7854,
      "travailler": 7855,
      "dee": 7856,
      "message": 7857,
      "loss": 7858,
      "productiv": 7859,
      "reform": 7860,
      "jac": 7861,
      "extra": 7862,
      "véhicules": 7863,
      "contracting": 7864,
      "école": 7865,
      "candidate": 7866,
      "fondament": 7867,
      "nan": 7868,
      "laws": 7869,
      "ib": 7870,
      "matters": 7871,
      "nunavut": 7872,
      "représente": 7873,
      "winnipeg": 7874,
      "sû": 7875,
      "appuyer": 7876,
      "connexes": 7877,
      "neg": 7878,
      "wers": 7879,
      "flexi": 7880,
      "lande": 7881,
      "protocole": 7882,
      "océ": 7883,
      "tail": 7884,
      "clearly": 7885,
      "lève": 7886,
      "résultat": 7887,
      "honour": 7888,
      "workshop": 7889,
      "pers": 7890,
      "quées": 7891,
      "ero": 7892,
      "ral": 7893,
      "whole": 7894,
      "foundation": 7895,
      "particuliers": 7896,
      "contro": 7897,
      "words": 7898,
      "transformation": 7899,
      "interprétation": 7900,
      "agenda": 7901,
      "setting": 7902,
      "74": 7903,
      "assets": 7904,
      "refus": 7905,
      "survi": 7906,
      "pointed": 7907,
      "hésion": 7908,
      "principales": 7909,
      "composition": 7910,
      "grant": 7911,
      "opéra": 7912,
      "researchers": 7913,
      "task": 7914,
      "juge": 7915,
      "instance": 7916,
      "effectiveness": 7917,
      "gender": 7918,
      "provinciaux": 7919,
      "green": 7920,
      "effectuer": 7921,
      "subse": 7922,
      "250": 7923,
      "users": 7924,
      "implic": 7925,
      "intitu": 7926,
      "seule": 7927,
      "wise": 7928,
      "crits": 7929,
      "èle": 7930,
      "dimension": 7931,
      "petites": 7932,
      "image": 7933,
      "réunions": 7934,
      "subsequent": 7935,
      "limite": 7936,
      "sensi": 7937,
      "chets": 7938,
      "pourcentage": 7939,
      "target": 7940,
      "instructions": 7941,
      "témo": 7942,
      "ffic": 7943,
      "juste": 7944,
      "imple": 7945,
      "compati": 7946,
      "sav": 7947,
      "connaissance": 7948,
      "2010": 7949,
      "compagnie": 7950,
      "managers": 7951,
      "fas": 7952,
      "convient": 7953,
      "computer": 7954,
      "serious": 7955,
      "del": 7956,
      "statistique": 7957,
      "citizens": 7958,
      "start": 7959,
      "partner": 7960,
      "accountability": 7961,
      "peace": 7962,
      "ki": 7963,
      "affected": 7964,
      "financing": 7965,
      "81": 7966,
      "approbation": 7967,
      "transactions": 7968,
      "kb": 7969,
      "vide": 7970,
      "lang": 7971,
      "cées": 7972,
      "nutrition": 7973,
      "civile": 7974,
      "exercise": 7975,
      "oir": 7976,
      "suring": 7977,
      "logical": 7978,
      "attend": 7979,
      "fiés": 7980,
      "reste": 7981,
      "79": 7982,
      "férences": 7983,
      "exige": 7984,
      "décrit": 7985,
      "ensuite": 7986,
      "took": 7987,
      "sar": 7988,
      "ration": 7989,
      "amples": 7990,
      "cée": 7991,
      "supporting": 7992,
      "tas": 7993,
      "troisième": 7994,
      "eg": 7995,
      "vacc": 7996,
      "repres": 7997,
      "governance": 7998,
      "exprim": 7999,
      "amended": 8000,
      "obtained": 8001,
      "alités": 8002,
      "approvision": 8003,
      "compter": 8004,
      "caractère": 8005,
      "filed": 8006,
      "entitled": 8007,
      "mécanismes": 8008,
      "lesquels": 8009,
      "xy": 8010,
      "égalité": 8011,
      "ensuring": 8012,
      "undertaking": 8013,
      "82": 8014,
      "descrip": 8015,
      "duties": 8016,
      "milliards": 8017,
      "adéqu": 8018,
      "interventions": 8019,
      "réguli": 8020,
      "codes": 8021,
      "emphas": 8022,
      "item": 8023,
      "commitments": 8024,
      "pal": 8025,
      "immédi": 8026,
      "meilleure": 8027,
      "expenditures": 8028,
      "protect": 8029,
      "hearing": 8030,
      "produire": 8031,
      "hali": 8032,
      "demo": 8033,
      "contribuer": 8034,
      "accé": 8035,
      "analyses": 8036,
      "tom": 8037,
      "brevets": 8038,
      "interes": 8039,
      "carb": 8040,
      "idrc": 8041,
      "sil": 8042,
      "principalement": 8043,
      "print": 8044,
      "counter": 8045,
      "réalisation": 8046,
      "implemented": 8047,
      "supérieur": 8048,
      "ètres": 8049,
      "militaires": 8050,
      "réponses": 8051,
      "commune": 8052,
      "crédits": 8053,
      "naturelles": 8054,
      "résumé": 8055,
      "follows": 8056,
      "hors": 8057,
      "ares": 8058,
      "faite": 8059,
      "perspective": 8060,
      "vih": 8061,
      "dite": 8062,
      "gla": 8063,
      "exposure": 8064,
      "feuille": 8065,
      "soc": 8066,
      "nage": 8067,
      "tir": 8068,
      "accompag": 8069,
      "adjust": 8070,
      "zo": 8071,
      "prévue": 8072,
      "quelque": 8073,
      "fee": 8074,
      "univer": 8075,
      "haz": 8076,
      "carbon": 8077,
      "correction": 8078,
      "fonctionnaires": 8079,
      "ken": 8080,
      "certification": 8081,
      "olymp": 8082,
      "restrictions": 8083,
      "little": 8084,
      "disposi": 8085,
      "ministérie": 8086,
      "component": 8087,
      "examine": 8088,
      "rue": 8089,
      "étaires": 8090,
      "outcomes": 8091,
      "emplois": 8092,
      "declar": 8093,
      "clean": 8094,
      "cabin": 8095,
      "amounts": 8096,
      "characteris": 8097,
      "indicateurs": 8098,
      "listed": 8099,
      "èque": 8100,
      "adopté": 8101,
      "norme": 8102,
      "journ": 8103,
      "mou": 8104,
      "équipement": 8105,
      "aveur": 8106,
      "histoire": 8107,
      "revis": 8108,
      "newfound": 8109,
      "mt": 8110,
      "yle": 8111,
      "catégories": 8112,
      "limites": 8113,
      "logique": 8114,
      "lesquelles": 8115,
      "clairement": 8116,
      "fp": 8117,
      "imes": 8118,
      "sif": 8119,
      "ana": 8120,
      "findings": 8121,
      "commerciaux": 8122,
      "difficult": 8123,
      "newfoundland": 8124,
      "ministry": 8125,
      "déliv": 8126,
      "step": 8127,
      "facility": 8128,
      "observation": 8129,
      "plants": 8130,
      "bey": 8131,
      "adaptation": 8132,
      "degree": 8133,
      "expect": 8134,
      "parta": 8135,
      "modifier": 8136,
      "rh": 8137,
      "phar": 8138,
      "crire": 8139,
      "clinical": 8140,
      "ists": 8141,
      "passé": 8142,
      "enable": 8143,
      "aume": 8144,
      "handic": 8145,
      "marques": 8146,
      "sim": 8147,
      "compét": 8148,
      "ported": 8149,
      "sold": 8150,
      "territory": 8151,
      "commerciales": 8152,
      "suggest": 8153,
      "pin": 8154,
      "aura": 8155,
      "continuer": 8156,
      "trice": 8157,
      "portée": 8158,
      "chambre": 8159,
      "improving": 8160,
      "agricoles": 8161,
      "operate": 8162,
      "exclusive": 8163,
      "aps": 8164,
      "prices": 8165,
      "notification": 8166,
      "cut": 8167,
      "reconnu": 8168,
      "spécifiques": 8169,
      "cettes": 8170,
      "contrats": 8171,
      "uits": 8172,
      "grad": 8173,
      "plas": 8174,
      "yes": 8175,
      "abord": 8176,
      "ail": 8177,
      "scale": 8178,
      "fuel": 8179,
      "families": 8180,
      "aper": 8181,
      "takes": 8182,
      "consulter": 8183,
      "licences": 8184,
      "legislative": 8185,
      "commissaire": 8186,
      "requested": 8187,
      "bodies": 8188,
      "tobac": 8189,
      "dispu": 8190,
      "mains": 8191,
      "gestionnaires": 8192,
      "sujets": 8193,
      "arrêt": 8194,
      "indicators": 8195,
      "faveur": 8196,
      "contracts": 8197,
      "cussions": 8198,
      "param": 8199,
      "shown": 8200,
      "recovery": 8201,
      "goals": 8202,
      "mad": 8203,
      "recettes": 8204,
      "vez": 8205,
      "affich": 8206,
      "implementing": 8207,
      "partenariats": 8208,
      "endu": 8209,
      "distance": 8210,
      "bound": 8211,
      "vres": 8212,
      "selves": 8213,
      "majority": 8214,
      "death": 8215,
      "amment": 8216,
      "guarante": 8217,
      "immobil": 8218,
      "ker": 8219,
      "supplement": 8220,
      "alleg": 8221,
      "never": 8222,
      "mption": 8223,
      "duty": 8224,
      "afghan": 8225,
      "proceedings": 8226,
      "île": 8227,
      "vation": 8228,
      "constituent": 8229,
      "asi": 8230,
      "concep": 8231,
      "spor": 8232,
      "calgary": 8233,
      "logic": 8234,
      "llement": 8235,
      "foot": 8236,
      "animal": 8237,
      "lus": 8238,
      "geograph": 8239,
      "launch": 8240,
      "build": 8241,
      "archite": 8242,
      "royaume": 8243,
      "indicate": 8244,
      "maintien": 8245,
      "fournisseurs": 8246,
      "exceed": 8247,
      "behavi": 8248,
      "rement": 8249,
      "move": 8250,
      "traduction": 8251,
      "david": 8252,
      "live": 8253,
      "prohi": 8254,
      "cultures": 8255,
      "tobacco": 8256,
      "directorate": 8257,
      "destination": 8258,
      "iles": 8259,
      "traffic": 8260,
      "istes": 8261,
      "enfant": 8262,
      "guidance": 8263,
      "rempla": 8264,
      "déchets": 8265,
      "calend": 8266,
      "partnerships": 8267,
      "visé": 8268,
      "variety": 8269,
      "uniquement": 8270,
      "essais": 8271,
      "expansion": 8272,
      "anne": 8273,
      "intermédi": 8274,
      "majorité": 8275,
      "adequate": 8276,
      "selected": 8277,
      "défis": 8278,
      "cotis": 8279,
      "magne": 8280,
      "juridiques": 8281,
      "retraite": 8282,
      "sate": 8283,
      "opposition": 8284,
      "appear": 8285,
      "physique": 8286,
      "andis": 8287,
      "loo": 8288,
      "signature": 8289,
      "copyright": 8290,
      "supports": 8291,
      "commerciale": 8292,
      "sr": 8293,
      "whose": 8294,
      "participate": 8295,
      "gos": 8296,
      "subvention": 8297,
      "yet": 8298,
      "cueill": 8299,
      "leading": 8300,
      "freed": 8301,
      "attent": 8302,
      "officials": 8303,
      "housing": 8304,
      "consiste": 8305,
      "complain": 8306,
      "dû": 8307,
      "informed": 8308,
      "explain": 8309,
      "austral": 8310,
      "museum": 8311,
      "why": 8312,
      "itself": 8313,
      "understand": 8314,
      "marg": 8315,
      "complaint": 8316,
      "accounts": 8317,
      "differences": 8318,
      "secretary": 8319,
      "contenant": 8320,
      "businesses": 8321,
      "essentiel": 8322,
      "jam": 8323,
      "ude": 8324,
      "semaine": 8325,
      "china": 8326,
      "parliamentary": 8327,
      "incen": 8328,
      "mbers": 8329,
      "quences": 8330,
      "mines": 8331,
      "pouvoirs": 8332,
      "spon": 8333,
      "expos": 8334,
      "participant": 8335,
      "sept": 8336,
      "producers": 8337,
      "ky": 8338,
      "préal": 8339,
      "recip": 8340,
      "too": 8341,
      "biling": 8342,
      "importation": 8343,
      "satell": 8344,
      "secondary": 8345,
      "éviter": 8346,
      "prêts": 8347,
      "nr": 8348,
      "accommod": 8349,
      "mrs": 8350,
      "utilisées": 8351,
      "entry": 8352,
      "utilisateurs": 8353,
      "combus": 8354,
      "whereas": 8355,
      "jointe": 8356,
      "sibilité": 8357,
      "spect": 8358,
      "jurisdiction": 8359,
      "mortal": 8360,
      "tarif": 8361,
      "category": 8362,
      "discu": 8363,
      "contacts": 8364,
      "préci": 8365,
      "essai": 8366,
      "library": 8367,
      "aviation": 8368,
      "rapidement": 8369,
      "ibilité": 8370,
      "cession": 8371,
      "appointment": 8372,
      "examination": 8373,
      "items": 8374,
      "infection": 8375,
      "tandis": 8376,
      "permettent": 8377,
      "quantité": 8378,
      "components": 8379,
      "pharm": 8380,
      "isms": 8381,
      "facilitate": 8382,
      "manque": 8383,
      "autonom": 8384,
      "propose": 8385,
      "tière": 8386,
      "educational": 8387,
      "bene": 8388,
      "circonst": 8389,
      "artis": 8390,
      "enquêtes": 8391,
      "enfin": 8392,
      "reflect": 8393,
      "allocation": 8394,
      "viennent": 8395,
      "genre": 8396,
      "establishing": 8397,
      "bureaux": 8398,
      "expressed": 8399,
      "prair": 8400,
      "aéro": 8401,
      "familles": 8402,
      "150": 8403,
      "units": 8404,
      "minutes": 8405,
      "logie": 8406,
      "andon": 8407,
      "k1a": 8408,
      "factor": 8409,
      "prac": 8410,
      "impli": 8411,
      "gouvernementaux": 8412,
      "double": 8413,
      "concours": 8414,
      "except": 8415,
      "ruption": 8416,
      "terrain": 8417,
      "addressed": 8418,
      "maintenir": 8419,
      "admissibles": 8420,
      "illustr": 8421,
      "element": 8422,
      "élections": 8423,
      "check": 8424,
      "répercussions": 8425,
      "quarter": 8426,
      "régionaux": 8427,
      "fiée": 8428,
      "inqu": 8429,
      "ctures": 8430,
      "halifax": 8431,
      "diversi": 8432,
      "phones": 8433,
      "iste": 8434,
      "sound": 8435,
      "tirer": 8436,
      "temper": 8437,
      "rid": 8438,
      "1980": 8439,
      "temporary": 8440,
      "cles": 8441,
      "programming": 8442,
      "crtc": 8443,
      "zation": 8444,
      "railway": 8445,
      "contained": 8446,
      "leng": 8447,
      "ape": 8448,
      "dispar": 8449,
      "présentée": 8450,
      "accr": 8451,
      "générales": 8452,
      "privée": 8453,
      "étro": 8454,
      "percentage": 8455,
      "copies": 8456,
      "conflict": 8457,
      "négociations": 8458,
      "brevet": 8459,
      "sexu": 8460,
      "yor": 8461,
      "efficiency": 8462,
      "puisque": 8463,
      "demeur": 8464,
      "remboursement": 8465,
      "meu": 8466,
      "recommended": 8467,
      "difficile": 8468,
      "compéti": 8469,
      "agricole": 8470,
      "révision": 8471,
      "sct": 8472,
      "rencontr": 8473,
      "medium": 8474,
      "victor": 8475,
      "threat": 8476,
      "afrique": 8477,
      "ducing": 8478,
      "chimiques": 8479,
      "gag": 8480,
      "sole": 8481,
      "vehicle": 8482,
      "accent": 8483,
      "crite": 8484,
      "locales": 8485,
      "renforcement": 8486,
      "var": 8487,
      "audience": 8488,
      "étrangères": 8489,
      "substitu": 8490,
      "biblioth": 8491,
      "entretien": 8492,
      "perfection": 8493,
      "contents": 8494,
      "tait": 8495,
      "géograph": 8496,
      "granted": 8497,
      "fishing": 8498,
      "augmenter": 8499,
      "dens": 8500,
      "écosse": 8501,
      "légu": 8502,
      "haute": 8503,
      "acqui": 8504,
      "networks": 8505,
      "imprim": 8506,
      "formul": 8507,
      "boo": 8508,
      "authorized": 8509,
      "ignant": 8510,
      "professionnelle": 8511,
      "numbers": 8512,
      "handicap": 8513,
      "presse": 8514,
      "carte": 8515,
      "principale": 8516,
      "évaluations": 8517,
      "dose": 8518,
      "1986": 8519,
      "broadcasting": 8520,
      "oui": 8521,
      "obstacles": 8522,
      "pru": 8523,
      "kil": 8524,
      "premiers": 8525,
      "ums": 8526,
      "avoid": 8527,
      "çant": 8528,
      "oise": 8529,
      "motion": 8530,
      "dete": 8531,
      "committed": 8532,
      "word": 8533,
      "quet": 8534,
      "ery": 8535,
      "thy": 8536,
      "entrepreneurs": 8537,
      "liter": 8538,
      "bloc": 8539,
      "payable": 8540,
      "sembla": 8541,
      "monton": 8542,
      "travaille": 8543,
      "consumers": 8544,
      "mechanisms": 8545,
      "plainte": 8546,
      "judg": 8547,
      "événements": 8548,
      "edmonton": 8549,
      "negotiations": 8550,
      "poids": 8551,
      "memor": 8552,
      "zing": 8553,
      "pourquoi": 8554,
      "ouvé": 8555,
      "accur": 8556,
      "diagnos": 8557,
      "anticip": 8558,
      "pharmace": 8559,
      "aces": 8560,
      "revised": 8561,
      "observed": 8562,
      "sociales": 8563,
      "dessous": 8564,
      "rend": 8565,
      "rapid": 8566,
      "wildlife": 8567,
      "ather": 8568,
      "award": 8569,
      "competitive": 8570,
      "rendu": 8571,
      "visés": 8572,
      "meaning": 8573,
      "sauv": 8574,
      "fondée": 8575,
      "maxim": 8576,
      "pacific": 8577,
      "len": 8578,
      "danger": 8579,
      "chement": 8580,
      "fal": 8581,
      "york": 8582,
      "improvement": 8583,
      "lun": 8584,
      "disciplin": 8585,
      "empê": 8586,
      "shared": 8587,
      "mentioned": 8588,
      "protocol": 8589,
      "recognized": 8590,
      "beyond": 8591,
      "importe": 8592,
      "affili": 8593,
      "titulaire": 8594,
      "neuve": 8595,
      "répartition": 8596,
      "participating": 8597,
      "efficaces": 8598,
      "tants": 8599,
      "officiel": 8600,
      "associés": 8601,
      "achieved": 8602,
      "funda": 8603,
      "pard": 8604,
      "publié": 8605,
      "ring": 8606,
      "stress": 8607,
      "importations": 8608,
      "intel": 8609,
      "audio": 8610,
      "dates": 8611,
      "approaches": 8612,
      "acid": 8613,
      "actuel": 8614,
      "answer": 8615,
      "pai": 8616,
      "télécopie": 8617,
      "grants": 8618,
      "governmental": 8619,
      "ev": 8620,
      "television": 8621,
      "virus": 8622,
      "requests": 8623,
      "exclusion": 8624,
      "growing": 8625,
      "migration": 8626,
      "citizen": 8627,
      "expenditure": 8628,
      "socio": 8629,
      "themselves": 8630,
      "syndic": 8631,
      "rédi": 8632,
      "prefer": 8633,
      "comprennent": 8634,
      "tivité": 8635,
      "actifs": 8636,
      "significantly": 8637,
      "vér": 8638,
      "traités": 8639,
      "circulation": 8640,
      "prescri": 8641,
      "funded": 8642,
      "challenge": 8643,
      "waters": 8644,
      "fit": 8645,
      "chine": 8646,
      "loyment": 8647,
      "holder": 8648,
      "determination": 8649,
      "weight": 8650,
      "virtu": 8651,
      "dd": 8652,
      "presence": 8653,
      "tél": 8654,
      "soutenir": 8655,
      "tool": 8656,
      "latér": 8657,
      "seven": 8658,
      "perspectives": 8659,
      "osce": 8660,
      "reviewed": 8661,
      "écar": 8662,
      "équili": 8663,
      "ouvez": 8664,
      "connaître": 8665,
      "imposition": 8666,
      "permettra": 8667,
      "ised": 8668,
      "visu": 8669,
      "jamais": 8670,
      "otherwise": 8671,
      "perte": 8672,
      "nrc": 8673,
      "600": 8674,
      "bin": 8675,
      "electoral": 8676,
      "specifically": 8677,
      "employed": 8678,
      "tify": 8679,
      "modu": 8680,
      "goal": 8681,
      "rs": 8682,
      "modes": 8683,
      "promoting": 8684,
      "htm": 8685,
      "summer": 8686,
      "sun": 8687,
      "background": 8688,
      "oire": 8689,
      "black": 8690,
      "étrangers": 8691,
      "ping": 8692,
      "forte": 8693,
      "break": 8694,
      "bid": 8695,
      "produce": 8696,
      "développer": 8697,
      "expir": 8698,
      "messages": 8699,
      "containing": 8700,
      "reconnaissance": 8701,
      "pouvez": 8702,
      "intellig": 8703,
      "assistant": 8704,
      "circonstances": 8705,
      "deur": 8706,
      "motifs": 8707,
      "bru": 8708,
      "sensibilisation": 8709,
      "cabinet": 8710,
      "réforme": 8711,
      "sond": 8712,
      "comparative": 8713,
      "atique": 8714,
      "chris": 8715,
      "illed": 8716,
      "earlier": 8717,
      "attr": 8718,
      "grade": 8719,
      "sida": 8720,
      "screening": 8721,
      "quit": 8722,
      "qualifications": 8723,
      "ctifs": 8724,
      "schools": 8725,
      "statements": 8726,
      "deven": 8727,
      "pétro": 8728,
      "announced": 8729,
      "ttes": 8730,
      "instruction": 8731,
      "electric": 8732,
      "symp": 8733,
      "acade": 8734,
      "montre": 8735,
      "tabac": 8736,
      "tac": 8737,
      "devices": 8738,
      "discussed": 8739,
      "wash": 8740,
      "professionnel": 8741,
      "locations": 8742,
      "préhen": 8743,
      "steps": 8744,
      "kin": 8745,
      "pollu": 8746,
      "actif": 8747,
      "totale": 8748,
      "suis": 8749,
      "always": 8750,
      "useful": 8751,
      "soumis": 8752,
      "sale": 8753,
      "aérone": 8754,
      "gains": 8755,
      "bate": 8756,
      "amén": 8757,
      "ison": 8758,
      "ology": 8759,
      "simpli": 8760,
      "elimin": 8761,
      "want": 8762,
      "reço": 8763,
      "utilisée": 8764,
      "py": 8765,
      "fournis": 8766,
      "prison": 8767,
      "applicables": 8768,
      "seraient": 8769,
      "lets": 8770,
      "applies": 8771,
      "afric": 8772,
      "généraux": 8773,
      "expert": 8774,
      "pièces": 8775,
      "seen": 8776,
      "separate": 8777,
      "obtenu": 8778,
      "historique": 8779,
      "recognition": 8780,
      "resulting": 8781,
      "fro": 8782,
      "makes": 8783,
      "prévus": 8784,
      "spécifique": 8785,
      "élè": 8786,
      "complète": 8787,
      "resident": 8788,
      "tonnes": 8789,
      "tiennent": 8790,
      "pleine": 8791,
      "diseases": 8792,
      "tempér": 8793,
      "uring": 8794,
      "veiller": 8795,
      "agir": 8796,
      "vehicles": 8797,
      "amb": 8798,
      "mexic": 8799,
      "spir": 8800,
      "music": 8801,
      "respecter": 8802,
      "édition": 8803,
      "fourni": 8804,
      "calls": 8805,
      "afghanistan": 8806,
      "paris": 8807,
      "avoc": 8808,
      "insu": 8809,
      "approvisionnement": 8810,
      "sample": 8811,
      "drogues": 8812,
      "ache": 8813,
      "sharing": 8814,
      "ceptions": 8815,
      "més": 8816,
      "college": 8817,
      "déte": 8818,
      "honourable": 8819,
      "err": 8820,
      "maje": 8821,
      "raisonnable": 8822,
      "mobi": 8823,
      "stocks": 8824,
      "online": 8825,
      "encourager": 8826,
      "utile": 8827,
      "consensus": 8828,
      "pierre": 8829,
      "argent": 8830,
      "healthy": 8831,
      "procurement": 8832,
      "mir": 8833,
      "visées": 8834,
      "120": 8835,
      "susceptibles": 8836,
      "almost": 8837,
      "supplémentaire": 8838,
      "siè": 8839,
      "phos": 8840,
      "exploit": 8841,
      "offered": 8842,
      "lieux": 8843,
      "eastern": 8844,
      "garantir": 8845,
      "réaliser": 8846,
      "reproduction": 8847,
      "tourism": 8848,
      "preparation": 8849,
      "robert": 8850,
      "titudes": 8851,
      "indiquer": 8852,
      "ived": 8853,
      "bâti": 8854,
      "gouvernementales": 8855,
      "bande": 8856,
      "sie": 8857,
      "raine": 8858,
      "debt": 8859,
      "facture": 8860,
      "unless": 8861,
      "européens": 8862,
      "chargé": 8863,
      "secrétaire": 8864,
      "gré": 8865,
      "degré": 8866,
      "tox": 8867,
      "database": 8868,
      "espace": 8869,
      "row": 8870,
      "requis": 8871,
      "autant": 8872,
      "stable": 8873,
      "investments": 8874,
      "orge": 8875,
      "somme": 8876,
      "genetic": 8877,
      "adopter": 8878,
      "prelimin": 8879,
      "psycho": 8880,
      "continues": 8881,
      "questionnaire": 8882,
      "divi": 8883,
      "seurs": 8884,
      "mill": 8885,
      "communes": 8886,
      "liberté": 8887,
      "gst": 8888,
      "éro": 8889,
      "places": 8890,
      "protected": 8891,
      "entire": 8892,
      "modalités": 8893,
      "mondial": 8894,
      "certificate": 8895,
      "bridge": 8896,
      "partage": 8897,
      "equity": 8898,
      "augmenté": 8899,
      "conjoint": 8900,
      "congé": 8901,
      "preliminary": 8902,
      "blood": 8903,
      "gérer": 8904,
      "humaine": 8905,
      "outcome": 8906,
      "spati": 8907,
      "relev": 8908,
      "départ": 8909,
      "trends": 8910,
      "tone": 8911,
      "dirige": 8912,
      "elections": 8913,
      "jobs": 8914,
      "appareils": 8915,
      "barri": 8916,
      "interpretation": 8917,
      "shel": 8918,
      "forecas": 8919,
      "ordonnance": 8920,
      "cee": 8921,
      "gov": 8922,
      "suspen": 8923,
      "régimes": 8924,
      "plein": 8925,
      "tch": 8926,
      "effectively": 8927,
      "fisc": 8928,
      "faites": 8929,
      "examples": 8930,
      "ententes": 8931,
      "fichi": 8932,
      "hausse": 8933,
      "charte": 8934,
      "ological": 8935,
      "declaration": 8936,
      "presentation": 8937,
      "indication": 8938,
      "mouve": 8939,
      "conseill": 8940,
      "imports": 8941,
      "settlement": 8942,
      "facteur": 8943,
      "entend": 8944,
      "pilot": 8945,
      "semaines": 8946,
      "intéres": 8947,
      "exportations": 8948,
      "seur": 8949,
      "immigrants": 8950,
      "fidu": 8951,
      "défini": 8952,
      "pipe": 8953,
      "complément": 8954,
      "culturelles": 8955,
      "représentent": 8956,
      "atif": 8957,
      "élarg": 8958,
      "télécopieur": 8959,
      "functions": 8960,
      "taxation": 8961,
      "recently": 8962,
      "lits": 8963,
      "comités": 8964,
      "seed": 8965,
      "unités": 8966,
      "alimentaires": 8967,
      "pattern": 8968,
      "conforme": 8969,
      "grain": 8970,
      "puisse": 8971,
      "germany": 8972,
      "finally": 8973,
      "cadres": 8974,
      "confiance": 8975,
      "régionale": 8976,
      "différences": 8977,
      "length": 8978,
      "endroit": 8979,
      "apporter": 8980,
      "isent": 8981,
      "ee": 8982,
      "etat": 8983,
      "photograph": 8984,
      "contraire": 8985,
      "thom": 8986,
      "appliquent": 8987,
      "etary": 8988,
      "détail": 8989,
      "mots": 8990,
      "inscrit": 8991,
      "asia": 8992,
      "infrastructures": 8993,
      "exploration": 8994,
      "daily": 8995,
      "gène": 8996,
      "han": 8997,
      "rables": 8998,
      "paix": 8999,
      "senti": 9000,
      "usually": 9001,
      "negative": 9002,
      "stations": 9003,
      "ulture": 9004,
      "actes": 9005,
      "conséquences": 9006,
      "rivière": 9007,
      "suggested": 9008,
      "pouvant": 9009,
      "réserves": 9010,
      "itement": 9011,
      "campa": 9012,
      "chacune": 9013,
      "mécanisme": 9014,
      "renew": 9015,
      "pén": 9016,
      "utilisant": 9017,
      "contient": 9018,
      "round": 9019,
      "douanes": 9020,
      "campagne": 9021,
      "speak": 9022,
      "liaison": 9023,
      "aj": 9024,
      "ington": 9025,
      "armes": 9026,
      "cemment": 9027,
      "blan": 9028,
      "introduced": 9029,
      "diplom": 9030,
      "potentiel": 9031,
      "involving": 9032,
      "requér": 9033,
      "ouverture": 9034,
      "urb": 9035,
      "ston": 9036,
      "ancement": 9037,
      "inquir": 9038,
      "rant": 9039,
      "détails": 9040,
      "remains": 9041,
      "biom": 9042,
      "europ": 9043,
      "oceans": 9044,
      "sépar": 9045,
      "crown": 9046,
      "achat": 9047,
      "tidi": 9048,
      "measurement": 9049,
      "tware": 9050,
      "symb": 9051,
      "passage": 9052,
      "followed": 9053,
      "deau": 9054,
      "dfo": 9055,
      "revenues": 9056,
      "ny": 9057,
      "causes": 9058,
      "license": 9059,
      "radiodiffusion": 9060,
      "reje": 9061,
      "effectué": 9062,
      "répondants": 9063,
      "submission": 9064,
      "ém": 9065,
      "orders": 9066,
      "prima": 9067,
      "ik": 9068,
      "excé": 9069,
      "allowed": 9070,
      "corps": 9071,
      "automob": 9072,
      "decided": 9073,
      "paul": 9074,
      "allég": 9075,
      "honorable": 9076,
      "committees": 9077,
      "ising": 9078,
      "software": 9079,
      "amor": 9080,
      "digital": 9081,
      "involvement": 9082,
      "kingdom": 9083,
      "wee": 9084,
      "sommaire": 9085,
      "campaign": 9086,
      "consultatif": 9087,
      "électroniques": 9088,
      "unemp": 9089,
      "approuv": 9090,
      "préoccupations": 9091,
      "interested": 9092,
      "iring": 9093,
      "euros": 9094,
      "échanges": 9095,
      "steel": 9096,
      "behaviour": 9097,
      "certificat": 9098,
      "récemment": 9099,
      "ême": 9100,
      "winter": 9101,
      "tendances": 9102,
      "stes": 9103,
      "tag": 9104,
      "respondents": 9105,
      "infir": 9106,
      "highly": 9107,
      "salle": 9108,
      "exemples": 9109,
      "mière": 9110,
      "thèse": 9111,
      "preser": 9112,
      "iels": 9113,
      "cash": 9114,
      "ventes": 9115,
      "européennes": 9116,
      "approuvé": 9117,
      "peoples": 9118,
      "atement": 9119,
      "vég": 9120,
      "liti": 9121,
      "engineering": 9122,
      "federation": 9123,
      "consoli": 9124,
      "soil": 9125,
      "fundamental": 9126,
      "accepted": 9127,
      "innovative": 9128,
      "refu": 9129,
      "gare": 9130,
      "ever": 9131,
      "allemagne": 9132,
      "modifié": 9133,
      "beginning": 9134,
      "clause": 9135,
      "thes": 9136,
      "montants": 9137,
      "pore": 9138,
      "consid": 9139,
      "offerts": 9140,
      "poor": 9141,
      "annuelle": 9142,
      "inclusion": 9143,
      "tâches": 9144,
      "multiple": 9145,
      "voi": 9146,
      "ières": 9147,
      "cnrc": 9148,
      "ôts": 9149,
      "laboratory": 9150,
      "recevoir": 9151,
      "traiter": 9152,
      "bases": 9153,
      "montreal": 9154,
      "firms": 9155,
      "undertaken": 9156,
      "characteristics": 9157,
      "corporations": 9158,
      "thyl": 9159,
      "doing": 9160,
      "habil": 9161,
      "mau": 9162,
      "cti": 9163,
      "globale": 9164,
      "courant": 9165,
      "sert": 9166,
      "models": 9167,
      "tron": 9168,
      "ships": 9169,
      "bly": 9170,
      "prop": 9171,
      "physici": 9172,
      "dette": 9173,
      "lum": 9174,
      "harbour": 9175,
      "occupational": 9176,
      "destinés": 9177,
      "identité": 9178,
      "democra": 9179,
      "clas": 9180,
      "japan": 9181,
      "limits": 9182,
      "derniers": 9183,
      "nomin": 9184,
      "topic": 9185,
      "oh": 9186,
      "étapes": 9187,
      "adverse": 9188,
      "mur": 9189,
      "provis": 9190,
      "plaintes": 9191,
      "acted": 9192,
      "vra": 9193,
      "extension": 9194,
      "vais": 9195,
      "océans": 9196,
      "diam": 9197,
      "brief": 9198,
      "complaints": 9199,
      "007": 9200,
      "ena": 9201,
      "pressure": 9202,
      "chaî": 9203,
      "coast": 9204,
      "humains": 9205,
      "atteint": 9206,
      "démar": 9207,
      "larger": 9208,
      "overview": 9209,
      "détermination": 9210,
      "compréhen": 9211,
      "atom": 9212,
      "élèves": 9213,
      "appointed": 9214,
      "pensions": 9215,
      "assure": 9216,
      "student": 9217,
      "exemption": 9218,
      "clus": 9219,
      "greg": 9220,
      "enting": 9221,
      "disting": 9222,
      "arrangement": 9223,
      "lakes": 9224,
      "ologie": 9225,
      "quotidi": 9226,
      "fes": 9227,
      "fixed": 9228,
      "izing": 9229,
      "abandon": 9230,
      "enterprises": 9231,
      "brought": 9232,
      "card": 9233,
      "chô": 9234,
      "déterminé": 9235,
      "petits": 9236,
      "concluded": 9237,
      "wri": 9238,
      "facul": 9239,
      "vaste": 9240,
      "agro": 9241,
      "poss": 9242,
      "cused": 9243,
      "éthique": 9244,
      "comportement": 9245,
      "ked": 9246,
      "inclure": 9247,
      "leader": 9248,
      "mener": 9249,
      "nuclé": 9250,
      "manifest": 9251,
      "victi": 9252,
      "fine": 9253,
      "typ": 9254,
      "ret": 9255,
      "learn": 9256,
      "tières": 9257,
      "grounds": 9258,
      "advantage": 9259,
      "lux": 9260,
      "nar": 9261,
      "consci": 9262,
      "octro": 9263,
      "lives": 9264,
      "donnée": 9265,
      "hood": 9266,
      "itali": 9267,
      "rur": 9268,
      "mari": 9269,
      "images": 9270,
      "prã": 9271,
      "changed": 9272,
      "injury": 9273,
      "ied": 9274,
      "minority": 9275,
      "candidat": 9276,
      "vois": 9277,
      "lined": 9278,
      "élevés": 9279,
      "culturel": 9280,
      "nég": 9281,
      "pme": 9282,
      "filing": 9283,
      "rest": 9284,
      "élector": 9285,
      "visible": 9286,
      "fill": 9287,
      "fédération": 9288,
      "movement": 9289,
      "mpo": 9290,
      "transaction": 9291,
      "sac": 9292,
      "agri": 9293,
      "créé": 9294,
      "micha": 9295,
      "appelant": 9296,
      "increases": 9297,
      "victoria": 9298,
      "certaine": 9299,
      "tradu": 9300,
      "cité": 9301,
      "liam": 9302,
      "cellules": 9303,
      "ality": 9304,
      "rss": 9305,
      "110": 9306,
      "veter": 9307,
      "passeng": 9308,
      "oral": 9309,
      "ute": 9310,
      "ola": 9311,
      "tendance": 9312,
      "left": 9313,
      "définir": 9314,
      "accident": 9315,
      "primarily": 9316,
      "collecte": 9317,
      "leaders": 9318,
      "arctic": 9319,
      "atifs": 9320,
      "qualified": 9321,
      "lying": 9322,
      "receip": 9323,
      "contains": 9324,
      "inscription": 9325,
      "join": 9326,
      "complainant": 9327,
      "gouvernance": 9328,
      "crimin": 9329,
      "labe": 9330,
      "transit": 9331,
      "poisson": 9332,
      "dangere": 9333,
      "register": 9334,
      "sities": 9335,
      "sports": 9336,
      "prélimin": 9337,
      "ald": 9338,
      "receiving": 9339,
      "career": 9340,
      "identifier": 9341,
      "adhésion": 9342,
      "longue": 9343,
      "shows": 9344,
      "previously": 9345,
      "animals": 9346,
      "season": 9347,
      "herein": 9348,
      "conduite": 9349,
      "débat": 9350,
      "aspect": 9351,
      "heading": 9352,
      "secondaire": 9353,
      "appuy": 9354,
      "mass": 9355,
      "régionales": 9356,
      "appréci": 9357,
      "telecommunications": 9358,
      "ibility": 9359,
      "wr": 9360,
      "medicine": 9361,
      "categories": 9362,
      "delay": 9363,
      "accounting": 9364,
      "aquac": 9365,
      "files": 9366,
      "worked": 9367,
      "storage": 9368,
      "machines": 9369,
      "pacifique": 9370,
      "couvre": 9371,
      "raised": 9372,
      "oiseaux": 9373,
      "curs": 9374,
      "préser": 9375,
      "attemp": 9376,
      "laboratoire": 9377,
      "assujet": 9378,
      "za": 9379,
      "décre": 9380,
      "rcmp": 9381,
      "remplir": 9382,
      "dispose": 9383,
      "alimentation": 9384,
      "difference": 9385,
      "pit": 9386,
      "scru": 9387,
      "enhanced": 9388,
      "chrom": 9389,
      "sand": 9390,
      "input": 9391,
      "kar": 9392,
      "commercialisation": 9393,
      "weeks": 9394,
      "conséquence": 9395,
      "availability": 9396,
      "bition": 9397,
      "peter": 9398,
      "views": 9399,
      "foli": 9400,
      "methodo": 9401,
      "secure": 9402,
      "stabil": 9403,
      "cape": 9404,
      "exports": 9405,
      "procéder": 9406,
      "represented": 9407,
      "secu": 9408,
      "malgré": 9409,
      "consumption": 9410,
      "presque": 9411,
      "appels": 9412,
      "gets": 9413,
      "nuclear": 9414,
      "officielle": 9415,
      "perfectionnement": 9416,
      "logement": 9417,
      "déclarations": 9418,
      "collected": 9419,
      "matéri": 9420,
      "inje": 9421,
      "choice": 9422,
      "enjeux": 9423,
      "admissible": 9424,
      "environnementales": 9425,
      "sessions": 9426,
      "mining": 9427,
      "jun": 9428,
      "practical": 9429,
      "texti": 9430,
      "tbs": 9431,
      "poissons": 9432,
      "relatively": 9433,
      "grc": 9434,
      "préalable": 9435,
      "jeu": 9436,
      "haus": 9437,
      "vain": 9438,
      "819": 9439,
      "writing": 9440,
      "faibles": 9441,
      "dues": 9442,
      "distinct": 9443,
      "portent": 9444,
      "commence": 9445,
      "ologiques": 9446,
      "think": 9447,
      "hp": 9448,
      "pharmac": 9449,
      "though": 9450,
      "ancing": 9451,
      "reducing": 9452,
      "maison": 9453,
      "petite": 9454,
      "précise": 9455,
      "auche": 9456,
      "médicaux": 9457,
      "trial": 9458,
      "diab": 9459,
      "céré": 9460,
      "residents": 9461,
      "implications": 9462,
      "believe": 9463,
      "disabilities": 9464,
      "agré": 9465,
      "poursuivre": 9466,
      "prestat": 9467,
      "énergé": 9468,
      "lâ": 9469,
      "salari": 9470,
      "fédérales": 9471,
      "culturelle": 9472,
      "comply": 9473,
      "environnementaux": 9474,
      "pite": 9475,
      "din": 9476,
      "trices": 9477,
      "dispens": 9478,
      "salmon": 9479,
      "identity": 9480,
      "écoles": 9481,
      "actuelles": 9482,
      "valence": 9483,
      "ché": 9484,
      "parlementaire": 9485,
      "master": 9486,
      "applicants": 9487,
      "quick": 9488,
      "révé": 9489,
      "failure": 9490,
      "resol": 9491,
      "manage": 9492,
      "japon": 9493,
      "glu": 9494,
      "responses": 9495,
      "énoncé": 9496,
      "preci": 9497,
      "anciens": 9498,
      "aware": 9499,
      "rand": 9500,
      "échéant": 9501,
      "display": 9502,
      "disability": 9503,
      "administratives": 9504,
      "ani": 9505,
      "vues": 9506,
      "ys": 9507,
      "adultes": 9508,
      "difficultés": 9509,
      "arrê": 9510,
      "gestionnaire": 9511,
      "volon": 9512,
      "itã": 9513,
      "satellite": 9514,
      "incident": 9515,
      "draw": 9516,
      "ratio": 9517,
      "suffisamment": 9518,
      "participé": 9519,
      "democratic": 9520,
      "controlled": 9521,
      "neuf": 9522,
      "largest": 9523,
      "petit": 9524,
      "sell": 9525,
      "titres": 9526,
      "approfon": 9527,
      "graphique": 9528,
      "affec": 9529,
      "manufacture": 9530,
      "accrue": 9531,
      "feel": 9532,
      "hyper": 9533,
      "navires": 9534,
      "shore": 9535,
      "travers": 9536,
      "frau": 9537,
      "anda": 9538,
      "particulière": 9539,
      "spring": 9540,
      "td": 9541,
      "nies": 9542,
      "rock": 9543,
      "relationships": 9544,
      "possibles": 9545,
      "russie": 9546,
      "updated": 9547,
      "retail": 9548,
      "décidé": 9549,
      "stric": 9550,
      "intermédiaire": 9551,
      "cular": 9552,
      "outes": 9553,
      "mith": 9554,
      "kind": 9555,
      "inti": 9556,
      "quarters": 9557,
      "gazette": 9558,
      "advanced": 9559,
      "pwg": 9560,
      "iling": 9561,
      "pièce": 9562,
      "diplô": 9563,
      "workplace": 9564,
      "counsel": 9565,
      "furthermore": 9566,
      "qc": 9567,
      "répu": 9568,
      "freedom": 9569,
      "victimes": 9570,
      "prescribed": 9571,
      "frequent": 9572,
      "compréhension": 9573,
      "banks": 9574,
      "mits": 9575,
      "pot": 9576,
      "predic": 9577,
      "repe": 9578,
      "consent": 9579,
      "recy": 9580,
      "universités": 9581,
      "facts": 9582,
      "ôles": 9583,
      "changing": 9584,
      "fare": 9585,
      "providers": 9586,
      "refuge": 9587,
      "governor": 9588,
      "server": 9589,
      "retur": 9590,
      "clic": 9591,
      "cris": 9592,
      "strength": 9593,
      "grie": 9594,
      "atteinte": 9595,
      "alliance": 9596,
      "cohér": 9597,
      "hum": 9598,
      "tissu": 9599,
      "nus": 9600,
      "phé": 9601,
      "assign": 9602,
      "acknow": 9603,
      "ania": 9604,
      "ppe": 9605,
      "habituellement": 9606,
      "journée": 9607,
      "fabri": 9608,
      "élevée": 9609,
      "respond": 9610,
      "variables": 9611,
      "mot": 9612,
      "établis": 9613,
      "irs": 9614,
      "northwest": 9615,
      "démontr": 9616,
      "ano": 9617,
      "absor": 9618,
      "motiv": 9619,
      "dépu": 9620,
      "itié": 9621,
      "locale": 9622,
      "ancien": 9623,
      "habitats": 9624,
      "nings": 9625,
      "profile": 9626,
      "exercer": 9627,
      "historic": 9628,
      "respir": 9629,
      "puissent": 9630,
      "numer": 9631,
      "connection": 9632,
      "élection": 9633,
      "squ": 9634,
      "recrutement": 9635,
      "organic": 9636,
      "réception": 9637,
      "pron": 9638,
      "préparer": 9639,
      "ield": 9640,
      "utili": 9641,
      "naturel": 9642,
      "controls": 9643,
      "logiques": 9644,
      "plate": 9645,
      "asing": 9646,
      "ished": 9647,
      "modified": 9648,
      "ama": 9649,
      "assessed": 9650,
      "cade": 9651,
      "accumu": 9652,
      "largement": 9653,
      "tã": 9654,
      "pread": 9655,
      "gold": 9656,
      "variation": 9657,
      "destru": 9658,
      "recueill": 9659,
      "volunte": 9660,
      "parfois": 9661,
      "usement": 9662,
      "discrimin": 9663,
      "determining": 9664,
      "biological": 9665,
      "horizont": 9666,
      "pwgsc": 9667,
      "else": 9668,
      "libér": 9669,
      "suspension": 9670,
      "huit": 9671,
      "targe": 9672,
      "continent": 9673,
      "tising": 9674,
      "william": 9675,
      "apparten": 9676,
      "ago": 9677,
      "despite": 9678,
      "administrations": 9679,
      "outil": 9680,
      "zer": 9681,
      "précédente": 9682,
      "arriv": 9683,
      "considéré": 9684,
      "classes": 9685,
      "flight": 9686,
      "discuss": 9687,
      "accorder": 9688,
      "highest": 9689,
      "figurant": 9690,
      "europa": 9691,
      "actuels": 9692,
      "wit": 9693,
      "déterminée": 9694,
      "james": 9695,
      "ètes": 9696,
      "translation": 9697,
      "avenue": 9698,
      "examiné": 9699,
      "télévision": 9700,
      "hst": 9701,
      "ata": 9702,
      "banques": 9703,
      "mechanism": 9704,
      "lumière": 9705,
      "zes": 9706,
      "baisse": 9707,
      "cali": 9708,
      "distingu": 9709,
      "devra": 9710,
      "identifi": 9711,
      "household": 9712,
      "cells": 9713,
      "sique": 9714,
      "concent": 9715,
      "édi": 9716,
      "managing": 9717,
      "cic": 9718,
      "operative": 9719,
      "purchase": 9720,
      "105": 9721,
      "ferme": 9722,
      "prit": 9723,
      "estre": 9724,
      "andum": 9725,
      "aquaculture": 9726,
      "subsidi": 9727,
      "équité": 9728,
      "continuing": 9729,
      "navigation": 9730,
      "domic": 9731,
      "update": 9732,
      "paragraphes": 9733,
      "motor": 9734,
      "délais": 9735,
      "citoyen": 9736,
      "developments": 9737,
      "pover": 9738,
      "fondé": 9739,
      "deemed": 9740,
      "fields": 9741,
      "conflits": 9742,
      "became": 9743,
      "examined": 9744,
      "iment": 9745,
      "restaur": 9746,
      "bord": 9747,
      "bénévo": 9748,
      "internes": 9749,
      "coverage": 9750,
      "gamme": 9751,
      "lf": 9752,
      "creating": 9753,
      "rien": 9754,
      "probablement": 9755,
      "rie": 9756,
      "uves": 9757,
      "corruption": 9758,
      "prêt": 9759,
      "complet": 9760,
      "improvements": 9761,
      "url": 9762,
      "combined": 9763,
      "expand": 9764,
      "saison": 9765,
      "trouvent": 9766,
      "scheduled": 9767,
      "intitulé": 9768,
      "vérifier": 9769,
      "default": 9770,
      "liquid": 9771,
      "professionals": 9772,
      "cen": 9773,
      "cigare": 9774,
      "festiv": 9775,
      "southern": 9776,
      "gon": 9777,
[...]
